/*
 * Copyright (c) 2026 EdgeImpulse Inc.
 *
 * Generated by Edge Impulse and licensed under the applicable Edge Impulse
 * Terms of Service. Community and Professional Terms of Service
 * (https://edgeimpulse.com/legal/terms-of-service) or Enterprise Terms of
 * Service (https://edgeimpulse.com/legal/enterprise-terms-of-service),
 * according to your product plan subscription (the “License”).
 *
 * This software, documentation and other associated files (collectively referred
 * to as the “Software”) is a single SDK variation generated by the Edge Impulse
 * platform and requires an active paid Edge Impulse subscription to use this
 * Software for any purpose.
 *
 * You may NOT use this Software unless you have an active Edge Impulse subscription
 * that meets the eligibility requirements for the applicable License, subject to
 * your full and continued compliance with the terms and conditions of the License,
 * including without limitation any usage restrictions under the applicable License.
 *
 * If you do not have an active Edge Impulse product plan subscription, or if use
 * of this Software exceeds the usage limitations of your Edge Impulse product plan
 * subscription, you are not permitted to use this Software and must immediately
 * delete and erase all copies of this Software within your control or possession.
 * Edge Impulse reserves all rights and remedies available to enforce its rights.
 *
 * Unless required by applicable law or agreed to in writing, the Software is
 * distributed on an "AS IS" BASIS, WITHOUT WARRANTIES OR CONDITIONS OF ANY KIND,
 * either express or implied. See the License for the specific language governing
 * permissions, disclaimers and limitations under the License.
 */

#ifndef _EI_CLASSIFIER_TFLITE_LEARN_999099_14_H_
#define _EI_CLASSIFIER_TFLITE_LEARN_999099_14_H_

#define EI_CLASSIFIER_TFLITE_LEARN_999099_14_ARENA_SIZE     28672
const size_t tflite_learn_999099_14_arena_size = 28672;

#if defined __GNUC__
#define ALIGN(X) __attribute__((aligned(X)))
#elif defined _MSC_VER
#define ALIGN(X) __declspec(align(X))
#elif defined __TASKING__
#define ALIGN(X) __align(X)
#else
#define ALIGN(X)
#endif

#if defined(EI_MODEL_SECTION) && (defined(__GNUC__) || defined(__clang__))
#define STRINGIZE(x) #x
#define STRINGIZE_VALUE_OF(x) STRINGIZE(x)
#define MODEL_SECTION(X) __attribute__((section(STRINGIZE_VALUE_OF(X))))
#else
#define MODEL_SECTION(X)
#endif


MODEL_SECTION(EI_MODEL_SECTION) ALIGN(16) const unsigned char tflite_learn_999099_14[] = {
  0x20, 0x00, 0x00, 0x00, 0x54, 0x46, 0x4c, 0x33, 0x00, 0x00, 0x00, 0x00,
  0x14, 0x00, 0x20, 0x00, 0x1c, 0x00, 0x18, 0x00, 0x14, 0x00, 0x10, 0x00,
  0x0c, 0x00, 0x00, 0x00, 0x08, 0x00, 0x04, 0x00, 0x14, 0x00, 0x00, 0x00,
  0x1c, 0x00, 0x00, 0x00, 0x80, 0x00, 0x00, 0x00, 0x00, 0x01, 0x00, 0x00,
  0xd4, 0x3d, 0x00, 0x00, 0xe4, 0x3d, 0x00, 0x00, 0x94, 0x4b, 0x00, 0x00,
  0x03, 0x00, 0x00, 0x00, 0x01, 0x00, 0x00, 0x00, 0x04, 0x00, 0x00, 0x00,
  0x66, 0xc1, 0xff, 0xff, 0x0c, 0x00, 0x00, 0x00, 0x1c, 0x00, 0x00, 0x00,
  0x3c, 0x00, 0x00, 0x00, 0x0f, 0x00, 0x00, 0x00, 0x73, 0x65, 0x72, 0x76,
  0x69, 0x6e, 0x67, 0x5f, 0x64, 0x65, 0x66, 0x61, 0x75, 0x6c, 0x74, 0x00,
  0x01, 0x00, 0x00, 0x00, 0x04, 0x00, 0x00, 0x00, 0x74, 0xff, 0xff, 0xff,
  0x0e, 0x00, 0x00, 0x00, 0x04, 0x00, 0x00, 0x00, 0x08, 0x00, 0x00, 0x00,
  0x6f, 0x75, 0x74, 0x70, 0x75, 0x74, 0x5f, 0x30, 0x00, 0x00, 0x00, 0x00,
  0x01, 0x00, 0x00, 0x00, 0x04, 0x00, 0x00, 0x00, 0x0a, 0xc2, 0xff, 0xff,
  0x04, 0x00, 0x00, 0x00, 0x01, 0x00, 0x00, 0x00, 0x78, 0x00, 0x00, 0x00,
  0x03, 0x00, 0x00, 0x00, 0x5c, 0x00, 0x00, 0x00, 0x2c, 0x00, 0x00, 0x00,
  0x04, 0x00, 0x00, 0x00, 0xb8, 0xff, 0xff, 0xff, 0x12, 0x00, 0x00, 0x00,
  0x04, 0x00, 0x00, 0x00, 0x13, 0x00, 0x00, 0x00, 0x43, 0x4f, 0x4e, 0x56,
  0x45, 0x52, 0x53, 0x49, 0x4f, 0x4e, 0x5f, 0x4d, 0x45, 0x54, 0x41, 0x44,
  0x41, 0x54, 0x41, 0x00, 0xdc, 0xff, 0xff, 0xff, 0x11, 0x00, 0x00, 0x00,
  0x04, 0x00, 0x00, 0x00, 0x13, 0x00, 0x00, 0x00, 0x6d, 0x69, 0x6e, 0x5f,
  0x72, 0x75, 0x6e, 0x74, 0x69, 0x6d, 0x65, 0x5f, 0x76, 0x65, 0x72, 0x73,
  0x69, 0x6f, 0x6e, 0x00, 0x08, 0x00, 0x0c, 0x00, 0x08, 0x00, 0x04, 0x00,
  0x08, 0x00, 0x00, 0x00, 0x10, 0x00, 0x00, 0x00, 0x04, 0x00, 0x00, 0x00,
  0x13, 0x00, 0x00, 0x00, 0x6d, 0x69, 0x6e, 0x5f, 0x72, 0x75, 0x6e, 0x74,
  0x69, 0x6d, 0x65, 0x5f, 0x76, 0x65, 0x72, 0x73, 0x69, 0x6f, 0x6e, 0x00,
  0x13, 0x00, 0x00, 0x00, 0xd0, 0x3c, 0x00, 0x00, 0xc8, 0x3c, 0x00, 0x00,
  0xb0, 0x3c, 0x00, 0x00, 0x8c, 0x3c, 0x00, 0x00, 0x7c, 0x14, 0x00, 0x00,
  0xec, 0x13, 0x00, 0x00, 0xdc, 0x01, 0x00, 0x00, 0x8c, 0x01, 0x00, 0x00,
  0xec, 0x00, 0x00, 0x00, 0xe4, 0x00, 0x00, 0x00, 0xdc, 0x00, 0x00, 0x00,
  0xd4, 0x00, 0x00, 0x00, 0xcc, 0x00, 0x00, 0x00, 0xc4, 0x00, 0x00, 0x00,
  0xbc, 0x00, 0x00, 0x00, 0xb4, 0x00, 0x00, 0x00, 0x94, 0x00, 0x00, 0x00,
  0x74, 0x00, 0x00, 0x00, 0x04, 0x00, 0x00, 0x00, 0xee, 0xc2, 0xff, 0xff,
  0x04, 0x00, 0x00, 0x00, 0x60, 0x00, 0x00, 0x00, 0x0c, 0x00, 0x00, 0x00,
  0x08, 0x00, 0x0e, 0x00, 0x08, 0x00, 0x04, 0x00, 0x08, 0x00, 0x00, 0x00,
  0x10, 0x00, 0x00, 0x00, 0x28, 0x00, 0x00, 0x00, 0x00, 0x00, 0x06, 0x00,
  0x08, 0x00, 0x04, 0x00, 0x06, 0x00, 0x00, 0x00, 0x04, 0x00, 0x00, 0x00,
  0x01, 0x00, 0x00, 0x00, 0xeb, 0x03, 0x00, 0x00, 0x0c, 0x00, 0x18, 0x00,
  0x14, 0x00, 0x10, 0x00, 0x0c, 0x00, 0x04, 0x00, 0x0c, 0x00, 0x00, 0x00,
  0x22, 0xfc, 0xef, 0x22, 0xa3, 0x69, 0xf1, 0xf1, 0x03, 0x00, 0x00, 0x00,
  0x02, 0x00, 0x00, 0x00, 0x04, 0x00, 0x00, 0x00, 0x06, 0x00, 0x00, 0x00,
  0x32, 0x2e, 0x31, 0x39, 0x2e, 0x31, 0x00, 0x00, 0x5a, 0xc3, 0xff, 0xff,
  0x04, 0x00, 0x00, 0x00, 0x10, 0x00, 0x00, 0x00, 0x00, 0x00, 0x00, 0x00,
  0x00, 0x00, 0x00, 0x00, 0x00, 0x00, 0x00, 0x00, 0x00, 0x00, 0x00, 0x00,
  0x76, 0xc3, 0xff, 0xff, 0x04, 0x00, 0x00, 0x00, 0x10, 0x00, 0x00, 0x00,
  0x31, 0x2e, 0x31, 0x34, 0x2e, 0x30, 0x00, 0x00, 0x00, 0x00, 0x00, 0x00,
  0x00, 0x00, 0x00, 0x00, 0x04, 0xb7, 0xff, 0xff, 0x08, 0xb7, 0xff, 0xff,
  0x0c, 0xb7, 0xff, 0xff, 0x10, 0xb7, 0xff, 0xff, 0x14, 0xb7, 0xff, 0xff,
  0x18, 0xb7, 0xff, 0xff, 0x1c, 0xb7, 0xff, 0xff, 0xae, 0xc3, 0xff, 0xff,
  0x04, 0x00, 0x00, 0x00, 0x90, 0x00, 0x00, 0x00, 0x18, 0x02, 0x81, 0x64,
  0xb3, 0x19, 0x7e, 0x95, 0xe8, 0x93, 0xf1, 0x81, 0x9d, 0xfd, 0xd9, 0x65,
  0x7e, 0x98, 0x67, 0x81, 0x86, 0x4e, 0xa5, 0x2c, 0x50, 0x9f, 0x3f, 0xc6,
  0x17, 0x6f, 0x75, 0x70, 0x11, 0x0a, 0x36, 0x7f, 0x7f, 0xea, 0x9b, 0x02,
  0xe5, 0x85, 0x4d, 0xdb, 0xa4, 0xe0, 0x12, 0x7f, 0xb0, 0x0d, 0xe6, 0x3d,
  0xe2, 0x84, 0x40, 0xef, 0xde, 0xb8, 0x81, 0xae, 0xbb, 0x0b, 0xc5, 0x70,
  0x59, 0x73, 0xc9, 0xfc, 0x7f, 0x5e, 0xf7, 0x0e, 0x4e, 0x1b, 0xdf, 0xc2,
  0xce, 0x81, 0x89, 0x23, 0xce, 0xba, 0x73, 0x77, 0x7f, 0x17, 0xd6, 0xbb,
  0x3d, 0xe2, 0x7f, 0xee, 0xa2, 0x52, 0x21, 0xa9, 0xb3, 0x4c, 0xb8, 0xee,
  0x81, 0xbc, 0x04, 0x84, 0x9a, 0x22, 0xf1, 0x24, 0xeb, 0x7f, 0x28, 0x72,
  0x13, 0x58, 0x5d, 0x73, 0xd6, 0x32, 0x4b, 0x2e, 0x25, 0x69, 0x7f, 0x5b,
  0x23, 0x3b, 0x78, 0x19, 0xdd, 0xa8, 0x81, 0x18, 0xcb, 0xd3, 0x7a, 0x1c,
  0x3f, 0x38, 0x59, 0xea, 0xbc, 0xc0, 0x38, 0x7f, 0x4a, 0xc4, 0xff, 0xff,
  0x04, 0x00, 0x00, 0x00, 0x40, 0x00, 0x00, 0x00, 0xf3, 0x1f, 0x00, 0x00,
  0x8d, 0x10, 0x00, 0x00, 0x13, 0x27, 0x00, 0x00, 0x51, 0xe6, 0xff, 0xff,
  0x86, 0xf6, 0xff, 0xff, 0x94, 0x3c, 0x00, 0x00, 0x00, 0x00, 0x00, 0x00,
  0x78, 0xf0, 0xff, 0xff, 0xdd, 0x0b, 0x00, 0x00, 0x6d, 0xfc, 0xff, 0xff,
  0x5a, 0x1e, 0x00, 0x00, 0xe2, 0xfc, 0xff, 0xff, 0x90, 0xf1, 0xff, 0xff,
  0x6c, 0xe1, 0xff, 0xff, 0x3b, 0x24, 0x00, 0x00, 0xd6, 0xe1, 0xff, 0xff,
  0x96, 0xc4, 0xff, 0xff, 0x04, 0x00, 0x00, 0x00, 0x00, 0x12, 0x00, 0x00,
  0xf2, 0x48, 0xc1, 0x22, 0xed, 0xd5, 0xc3, 0x61, 0x1a, 0x35, 0x88, 0x35,
  0x1f, 0x71, 0x13, 0x28, 0xd4, 0x0f, 0x98, 0x6c, 0xec, 0x2b, 0x54, 0x37,
  0xb3, 0xc7, 0xe3, 0x47, 0x60, 0x1a, 0x92, 0x08, 0x41, 0x06, 0x00, 0x75,
  0x16, 0x81, 0xe4, 0x3d, 0x35, 0xcc, 0x25, 0x1d, 0x3d, 0xe9, 0x17, 0x1e,
  0x82, 0xa5, 0xff, 0x53, 0x34, 0xdd, 0xcb, 0x43, 0x4f, 0x53, 0xe5, 0xd9,
  0x32, 0x52, 0x3d, 0xd7, 0xaa, 0xa6, 0xea, 0xdb, 0xef, 0x01, 0x51, 0xdd,
  0xe8, 0xf3, 0x15, 0xfb, 0x29, 0xe8, 0xa6, 0xfb, 0xe3, 0xe8, 0xd1, 0xfd,
  0xc8, 0x1d, 0x26, 0x10, 0x54, 0xfe, 0xfd, 0xb0, 0xd9, 0x11, 0xb8, 0x5a,
  0xef, 0x1f, 0xa6, 0xe3, 0xe9, 0x27, 0xe3, 0x65, 0x40, 0x22, 0xd0, 0xcd,
  0x0a, 0x29, 0xfa, 0x02, 0x22, 0x00, 0xbb, 0x29, 0x36, 0x13, 0xaa, 0x09,
  0x48, 0x6b, 0x03, 0xa8, 0x0f, 0x0e, 0xa7, 0x49, 0xcb, 0xd7, 0xc0, 0x1c,
  0xf5, 0xcf, 0xbb, 0x1b, 0xc5, 0xe4, 0xc9, 0xaf, 0x27, 0x07, 0xff, 0x75,
  0xad, 0x25, 0xd3, 0x0c, 0xc1, 0xb3, 0x3d, 0x50, 0x46, 0x26, 0xae, 0xfe,
  0x2d, 0x50, 0x81, 0x76, 0xff, 0x65, 0xc7, 0x3d, 0x3b, 0xbe, 0xeb, 0xd1,
  0xd0, 0x57, 0x57, 0x07, 0xfa, 0x1e, 0xfa, 0x3f, 0xa7, 0x54, 0x0d, 0xd0,
  0xed, 0x00, 0xb1, 0xfc, 0xd9, 0xf0, 0xcb, 0x25, 0x47, 0x6c, 0x09, 0xeb,
  0x1b, 0x3b, 0x24, 0x65, 0xcd, 0xda, 0xc5, 0x37, 0x12, 0xf6, 0xdc, 0x45,
  0x28, 0xdc, 0x1e, 0x4f, 0x4e, 0xf5, 0x40, 0x14, 0x38, 0xb7, 0xd5, 0x59,
  0xc8, 0xf9, 0xf8, 0x4a, 0xf0, 0xeb, 0xa4, 0xeb, 0x08, 0xd9, 0x02, 0x1f,
  0xf8, 0xf5, 0x0b, 0x33, 0xe6, 0x2f, 0x0a, 0x38, 0x39, 0x10, 0x1f, 0x56,
  0xad, 0xdc, 0xb1, 0x34, 0x43, 0x19, 0xe4, 0x51, 0xc9, 0x69, 0x25, 0xd5,
  0xf8, 0x51, 0x8f, 0x3f, 0xf4, 0x30, 0x33, 0x68, 0x18, 0xcd, 0x3c, 0x22,
  0x0a, 0xe0, 0xd0, 0xea, 0x29, 0x17, 0xda, 0x63, 0xb3, 0x31, 0xff, 0x1e,
  0xab, 0x16, 0x0e, 0xcd, 0xdc, 0x75, 0xeb, 0xd4, 0x12, 0xe9, 0xa2, 0x23,
  0xbe, 0xbb, 0xe2, 0x2b, 0x4c, 0x11, 0x2d, 0x22, 0xbc, 0x45, 0xb2, 0x45,
  0x6f, 0xf6, 0x89, 0x78, 0x19, 0xe5, 0x42, 0xe4, 0xfa, 0x36, 0x40, 0x0a,
  0x14, 0x0e, 0xd2, 0xaf, 0xe1, 0x76, 0x1c, 0x61, 0x38, 0xee, 0xd2, 0xc7,
  0x50, 0xd7, 0xac, 0x3a, 0xb1, 0xce, 0x2b, 0xe8, 0x04, 0x5a, 0x40, 0x5b,
  0x8b, 0xa1, 0xf2, 0x4d, 0x07, 0x21, 0xf4, 0xc9, 0xa7, 0x45, 0x99, 0xc2,
  0xf4, 0x4c, 0x95, 0x5d, 0xdd, 0x5a, 0xe1, 0x4a, 0xe7, 0xb4, 0xf6, 0x47,
  0xa8, 0x4e, 0x7e, 0xdb, 0x76, 0x46, 0xac, 0x08, 0x57, 0xed, 0x7f, 0xaf,
  0xcc, 0xfa, 0x39, 0x20, 0x05, 0x65, 0x00, 0x3a, 0x27, 0xd1, 0x64, 0x05,
  0x86, 0xa8, 0x16, 0x74, 0xb7, 0xb4, 0x46, 0x62, 0xb5, 0x26, 0xd4, 0x2d,
  0xfd, 0x3c, 0x37, 0x79, 0x6a, 0xdd, 0xd2, 0x68, 0x40, 0xde, 0x0e, 0x4e,
  0xbd, 0xdf, 0x6e, 0x0a, 0x42, 0xec, 0x32, 0x38, 0x7d, 0x46, 0x40, 0xe1,
  0xf1, 0xcd, 0x38, 0xc0, 0xeb, 0x25, 0x27, 0xbb, 0xaf, 0xaf, 0x13, 0x23,
  0x69, 0x39, 0x7f, 0xb7, 0x25, 0xe5, 0x04, 0xd7, 0xb8, 0x02, 0x59, 0x41,
  0x67, 0x40, 0x1b, 0xc8, 0x17, 0x96, 0xed, 0xf9, 0xb0, 0x71, 0xd3, 0x4c,
  0x31, 0x4c, 0x6d, 0x29, 0x96, 0xcd, 0xf5, 0xdd, 0xb5, 0x6d, 0x34, 0x20,
  0xea, 0x54, 0x61, 0x9e, 0x58, 0x5a, 0xbf, 0xf7, 0xb0, 0x47, 0xc8, 0x1d,
  0x42, 0x44, 0x5d, 0x09, 0x38, 0x0c, 0x2f, 0xe8, 0x6b, 0x2c, 0x0d, 0xde,
  0xbf, 0x52, 0x2d, 0xce, 0x5c, 0xc5, 0x3a, 0x0d, 0x61, 0x19, 0xec, 0xab,
  0x0f, 0x4c, 0x6b, 0x4f, 0x31, 0xea, 0x0b, 0x1b, 0xe0, 0xab, 0x43, 0x37,
  0x13, 0x5f, 0x96, 0xab, 0x4f, 0xd1, 0x5e, 0x02, 0xfc, 0x0a, 0x5f, 0xbb,
  0xfb, 0xbc, 0xf4, 0xa4, 0x3d, 0x1b, 0xa4, 0x03, 0x13, 0xf2, 0xe7, 0x52,
  0x37, 0xa9, 0x4a, 0x38, 0x6b, 0x69, 0x38, 0xee, 0x72, 0x3c, 0x5f, 0xb4,
  0xaa, 0xb9, 0xbd, 0xbd, 0xe0, 0x1a, 0x19, 0x5b, 0xf1, 0x5d, 0xb9, 0x68,
  0x65, 0x5a, 0x02, 0x6f, 0xa6, 0xb0, 0xd1, 0xb7, 0xe2, 0xb5, 0x3b, 0xd9,
  0xb0, 0x9c, 0x82, 0x02, 0xa3, 0xe9, 0xe6, 0x11, 0x2d, 0x3a, 0x98, 0xe4,
  0xaa, 0xe0, 0x39, 0x46, 0xcd, 0xd6, 0x9b, 0xb5, 0xdf, 0x11, 0x53, 0x45,
  0xd4, 0xee, 0xe3, 0x0e, 0xdb, 0xc9, 0x1a, 0xe7, 0x14, 0xba, 0x7a, 0xc3,
  0xb6, 0x4e, 0x44, 0x2d, 0xb7, 0x68, 0x7f, 0x3c, 0x54, 0x60, 0xf5, 0xc4,
  0xbe, 0xb6, 0x9e, 0x9d, 0xe7, 0x33, 0x19, 0x39, 0xe4, 0xe9, 0xd6, 0xad,
  0x3f, 0x11, 0xd5, 0xb0, 0xb0, 0x26, 0xb5, 0xb1, 0x1f, 0xbb, 0xeb, 0x4d,
  0x0a, 0x69, 0xc3, 0x35, 0x02, 0x42, 0x32, 0xea, 0x7b, 0x74, 0x66, 0xba,
  0x52, 0x9d, 0x19, 0xf8, 0xea, 0xda, 0xd3, 0x18, 0x0f, 0x0d, 0x2e, 0xf4,
  0xba, 0xaa, 0xd3, 0xa1, 0x28, 0x10, 0xc7, 0x00, 0x57, 0x3c, 0xe6, 0x3b,
  0xa1, 0x0a, 0x7c, 0xa7, 0xd1, 0x0c, 0xcb, 0xb0, 0xf1, 0x63, 0xd4, 0x4c,
  0xc8, 0xdf, 0xbf, 0xc8, 0x3f, 0xfc, 0x7f, 0x1f, 0x7b, 0xf9, 0x1e, 0x14,
  0xf9, 0x3d, 0xcb, 0xf7, 0xb6, 0x1b, 0x10, 0xeb, 0x5d, 0x28, 0x2a, 0xdf,
  0xe3, 0x4a, 0x11, 0xeb, 0xda, 0x07, 0x3e, 0xc8, 0xcc, 0x39, 0x29, 0xc7,
  0xfc, 0x10, 0x31, 0xec, 0xd7, 0x06, 0x55, 0x3f, 0x23, 0x17, 0xab, 0x17,
  0x24, 0xc1, 0xc7, 0xea, 0x11, 0xc9, 0x35, 0x0b, 0x3c, 0xcd, 0x05, 0xc1,
  0x09, 0x02, 0x43, 0xef, 0xb8, 0xdf, 0x03, 0x55, 0x04, 0xc5, 0xc8, 0xd2,
  0x15, 0x75, 0xfb, 0x34, 0xc6, 0xf0, 0x47, 0x26, 0x14, 0xd7, 0x49, 0x2b,
  0x66, 0xcd, 0x13, 0xff, 0x5d, 0x5f, 0x6b, 0xa6, 0xb7, 0x3b, 0xba, 0xdf,
  0x22, 0x15, 0x08, 0x41, 0xc0, 0xc9, 0x23, 0x3d, 0x32, 0x65, 0xf5, 0x37,
  0xad, 0xef, 0xcf, 0xc1, 0xe7, 0xf0, 0x3c, 0x30, 0xac, 0xee, 0x10, 0x02,
  0x23, 0xb6, 0xd8, 0x16, 0x02, 0x41, 0xef, 0x3d, 0xd3, 0x4c, 0x52, 0xb6,
  0x33, 0x0e, 0x81, 0xde, 0x71, 0x22, 0x21, 0x32, 0xcf, 0xc0, 0xe2, 0xf8,
  0xb9, 0x19, 0x53, 0xac, 0xfb, 0xce, 0x58, 0x36, 0x2e, 0xe3, 0x7d, 0x07,
  0x47, 0x36, 0x54, 0x1c, 0xca, 0x55, 0xed, 0xf1, 0x20, 0x2a, 0x13, 0x39,
  0x1c, 0x03, 0x89, 0x3c, 0x13, 0xfb, 0xe7, 0x36, 0xe1, 0xf2, 0xc1, 0xbd,
  0xe8, 0x73, 0xaf, 0xf1, 0x63, 0x87, 0x27, 0x3d, 0x22, 0x1c, 0x09, 0x70,
  0x41, 0x5d, 0xb1, 0xce, 0x7b, 0xf4, 0x10, 0x05, 0xaf, 0x2b, 0xcf, 0x1b,
  0x30, 0xa9, 0xe7, 0xcb, 0xc4, 0xd5, 0xa9, 0xb3, 0xd0, 0x7d, 0x09, 0x1b,
  0x81, 0x31, 0x23, 0x0b, 0x2d, 0x21, 0x31, 0xe4, 0xf1, 0x6d, 0x00, 0x50,
  0x5c, 0x03, 0x34, 0xd5, 0xca, 0x95, 0x16, 0xcb, 0x0a, 0x12, 0x10, 0x16,
  0xfc, 0x78, 0xca, 0x19, 0x32, 0x22, 0xc3, 0xf9, 0x97, 0x0e, 0x2b, 0x3f,
  0x43, 0x8f, 0x36, 0x37, 0x26, 0xf8, 0xed, 0xc3, 0x6b, 0x1c, 0x25, 0x56,
  0x84, 0xa5, 0xf5, 0xfb, 0xfb, 0x31, 0x24, 0xe1, 0xec, 0x22, 0xfe, 0x02,
  0x69, 0x0d, 0xd7, 0x6f, 0x54, 0x19, 0x4b, 0x3c, 0x02, 0x35, 0xe7, 0xdb,
  0xc1, 0x6d, 0x19, 0x06, 0x6b, 0x2b, 0x0e, 0x07, 0x25, 0x10, 0xc6, 0x3d,
  0xe5, 0x8b, 0xc9, 0x2d, 0xed, 0x07, 0xc9, 0xe2, 0x7e, 0x02, 0x91, 0xe7,
  0xd7, 0x29, 0x88, 0x6f, 0x34, 0x25, 0x3d, 0x4a, 0x0d, 0xe5, 0x45, 0x55,
  0x23, 0x1f, 0x10, 0x5f, 0x00, 0x48, 0xd5, 0x4e, 0xc7, 0xe4, 0xef, 0xda,
  0xcc, 0x09, 0x35, 0xe5, 0xee, 0x29, 0x33, 0xdd, 0xc2, 0x3e, 0xaf, 0x4e,
  0x4c, 0xd0, 0x30, 0xc9, 0x24, 0xee, 0xa9, 0x46, 0x37, 0x64, 0xa0, 0x34,
  0x32, 0xdb, 0xb6, 0x14, 0xd2, 0x0b, 0x00, 0x31, 0x0f, 0x64, 0xb9, 0xc0,
  0x65, 0x2f, 0xe0, 0xf6, 0xfd, 0x52, 0xda, 0x42, 0x00, 0xd0, 0x01, 0x36,
  0x09, 0x1b, 0x31, 0xeb, 0x72, 0xe8, 0x97, 0x7f, 0x36, 0x2b, 0x22, 0x37,
  0xbd, 0xdb, 0x24, 0x45, 0x44, 0x16, 0x2f, 0xc7, 0x6d, 0x0a, 0x07, 0x02,
  0xf6, 0x3e, 0xb8, 0x2a, 0xb6, 0x32, 0xd0, 0xe0, 0xac, 0xcc, 0x17, 0x56,
  0x4e, 0x57, 0xf3, 0xdd, 0x23, 0x2d, 0xd1, 0xf2, 0x1d, 0xad, 0xfe, 0x4e,
  0x06, 0x1b, 0xdd, 0x51, 0x41, 0xbc, 0x0f, 0xdb, 0xd8, 0xf4, 0x18, 0x08,
  0x02, 0xb3, 0x03, 0x3f, 0x93, 0x31, 0xd5, 0x28, 0xd4, 0xee, 0x92, 0x56,
  0x2d, 0x52, 0xf7, 0x60, 0xc6, 0xcc, 0x48, 0xc0, 0xed, 0x69, 0x26, 0xe7,
  0x2f, 0x70, 0x10, 0x62, 0x15, 0x0b, 0x2e, 0xe3, 0xa6, 0xcf, 0x18, 0x6f,
  0x00, 0x71, 0x4c, 0x32, 0x66, 0x66, 0x43, 0xf0, 0x39, 0xc7, 0x05, 0x4b,
  0xf8, 0x13, 0xf1, 0x19, 0xbf, 0xcc, 0xb9, 0x54, 0x17, 0x0f, 0x29, 0xf3,
  0x32, 0xfc, 0xba, 0x2b, 0xc2, 0x5f, 0xf4, 0xf9, 0xe8, 0x1c, 0xe1, 0xf7,
  0xbd, 0xb0, 0xcb, 0x1e, 0x64, 0xcb, 0x14, 0xe1, 0x0b, 0x1b, 0x55, 0xf8,
  0x14, 0xce, 0xd0, 0xef, 0xea, 0xf6, 0x37, 0xe8, 0xda, 0x4c, 0x2a, 0x52,
  0x1f, 0x34, 0x55, 0xc4, 0xf8, 0x75, 0x20, 0xf4, 0xcd, 0xfb, 0x58, 0xfc,
  0xe6, 0xb8, 0xa3, 0xf9, 0x09, 0x2e, 0x4b, 0x0b, 0x54, 0x41, 0xdc, 0x1d,
  0x4f, 0x3c, 0x59, 0xaf, 0x7f, 0x8f, 0xec, 0x87, 0x3a, 0x65, 0xcb, 0xc2,
  0x4e, 0xc1, 0xd7, 0x26, 0xd4, 0xb6, 0x16, 0x1f, 0x6e, 0xb7, 0xda, 0x95,
  0x4b, 0x4d, 0xe3, 0x2e, 0xc0, 0xbc, 0x46, 0xcc, 0x91, 0x22, 0x6c, 0x29,
  0x3e, 0x23, 0xe6, 0x50, 0x04, 0xf5, 0x03, 0xf8, 0xf9, 0xef, 0x08, 0xde,
  0x02, 0xd5, 0xaf, 0x0c, 0x05, 0x50, 0x37, 0xd2, 0xd2, 0x5c, 0xea, 0x28,
  0xb6, 0xd8, 0x28, 0xcc, 0x15, 0x18, 0xc3, 0xb9, 0x36, 0xde, 0x62, 0xbe,
  0x28, 0x7f, 0xc4, 0xb2, 0xcf, 0xca, 0x37, 0xd9, 0xda, 0xc7, 0x18, 0x26,
  0x48, 0x1b, 0x30, 0x2c, 0x24, 0x02, 0x28, 0x6c, 0x4f, 0x08, 0xfa, 0x3d,
  0x4f, 0x59, 0xf0, 0x59, 0x62, 0xcf, 0x42, 0xc2, 0x12, 0xd7, 0x1b, 0xd9,
  0x30, 0x91, 0x1c, 0xf3, 0xd9, 0xe4, 0xc9, 0x2f, 0x23, 0xd6, 0x41, 0xcf,
  0x58, 0x50, 0x30, 0xd3, 0x0d, 0xac, 0x43, 0x12, 0x22, 0x2f, 0x20, 0xb3,
  0xab, 0xf0, 0xb1, 0x3a, 0x5f, 0x5a, 0xab, 0x59, 0xc9, 0x43, 0x01, 0x45,
  0x43, 0xc0, 0xaa, 0x64, 0xc5, 0x3d, 0xeb, 0x0e, 0x9c, 0xdc, 0x0c, 0xde,
  0xd0, 0x63, 0xd2, 0xfd, 0x6c, 0x40, 0xb9, 0x30, 0x3f, 0xeb, 0x01, 0xd5,
  0xee, 0x00, 0x15, 0x20, 0x44, 0x2a, 0x10, 0xea, 0xe8, 0x26, 0xda, 0xf3,
  0xa5, 0xec, 0x14, 0x2c, 0x92, 0xe4, 0xd9, 0xbb, 0xd1, 0xd4, 0x99, 0xe8,
  0xf5, 0xec, 0x27, 0x35, 0x1e, 0x1a, 0xc3, 0x63, 0x10, 0x96, 0x1c, 0xd9,
  0x3c, 0xf2, 0xff, 0x3c, 0xb5, 0x5c, 0x17, 0xcb, 0x90, 0xa4, 0xb6, 0x5c,
  0xf9, 0xc1, 0x3d, 0x75, 0x1f, 0xd0, 0xbf, 0x16, 0xd1, 0x6d, 0x81, 0x74,
  0x14, 0x2d, 0x33, 0x32, 0x2b, 0xa6, 0x23, 0xf9, 0x43, 0x4a, 0xa2, 0xbc,
  0x3c, 0xb5, 0x25, 0x0c, 0xea, 0xb0, 0xa5, 0x6b, 0x09, 0xb3, 0xde, 0x29,
  0xf1, 0xd3, 0x87, 0x40, 0xcc, 0xed, 0xcd, 0xe5, 0xee, 0xb8, 0xae, 0x0e,
  0x37, 0xa3, 0xc1, 0x2e, 0x08, 0xd0, 0x2f, 0x57, 0xfa, 0x74, 0xb0, 0x79,
  0x31, 0xbc, 0xc6, 0x21, 0x20, 0x6f, 0xf8, 0xf2, 0xfa, 0x18, 0xfa, 0x3f,
  0x3c, 0x2a, 0xac, 0x0e, 0x94, 0x1b, 0xed, 0xdb, 0xde, 0xd8, 0xe3, 0x18,
  0x58, 0xe5, 0xfc, 0xda, 0xfe, 0xf9, 0xf0, 0x5e, 0x84, 0xa8, 0x18, 0x6c,
  0xfd, 0x30, 0x54, 0x01, 0x07, 0xd0, 0x82, 0x4b, 0xe6, 0x53, 0xb6, 0x2f,
  0x81, 0xa7, 0x0e, 0xf5, 0xc9, 0xee, 0x50, 0x1b, 0xe9, 0xbe, 0x8b, 0xc2,
  0x68, 0x48, 0x09, 0x42, 0xb3, 0x92, 0xa6, 0xf5, 0xe8, 0xd0, 0xb3, 0x3d,
  0xe1, 0x2e, 0x09, 0xc7, 0x2c, 0x38, 0xb3, 0xc9, 0xe0, 0xe3, 0xaa, 0x44,
  0x27, 0x10, 0x47, 0x25, 0xd4, 0xb2, 0xf9, 0xd8, 0xef, 0x1a, 0xf4, 0x53,
  0x95, 0xea, 0x87, 0xf7, 0xfd, 0x21, 0xfb, 0x1c, 0x53, 0x4c, 0x97, 0x4a,
  0x27, 0x0b, 0x23, 0x60, 0xa7, 0x03, 0x9d, 0x1b, 0xce, 0xff, 0xbe, 0x2c,
  0xad, 0xcd, 0x09, 0x1b, 0x4d, 0x64, 0xb6, 0x48, 0x0d, 0x05, 0x0a, 0x15,
  0xc5, 0xd7, 0x49, 0x3c, 0x2e, 0x41, 0x42, 0x4e, 0x54, 0x50, 0xd1, 0x72,
  0xe8, 0xcf, 0xc6, 0xd2, 0xdf, 0xa2, 0x47, 0x43, 0xf8, 0x1d, 0xf4, 0xed,
  0xe2, 0x65, 0xc0, 0x62, 0xcb, 0xc5, 0x96, 0x42, 0xc1, 0xac, 0xc6, 0x14,
  0xcc, 0x08, 0x9b, 0xd0, 0xfb, 0x4a, 0x0b, 0xf1, 0x97, 0xea, 0x19, 0x21,
  0xdc, 0x9f, 0x42, 0x19, 0x0d, 0xee, 0xa8, 0x1e, 0x2e, 0xd1, 0x0c, 0xfd,
  0xa3, 0xaf, 0xe0, 0x5b, 0x34, 0xa2, 0xa0, 0xa3, 0x3b, 0x46, 0x30, 0xc6,
  0x99, 0xe1, 0x1d, 0x10, 0x44, 0xcc, 0x1b, 0x05, 0x03, 0x5c, 0x14, 0x10,
  0xe6, 0xca, 0x0c, 0xd3, 0xd1, 0x11, 0xfa, 0x19, 0x67, 0x35, 0x32, 0xf4,
  0x42, 0xf0, 0xd5, 0x52, 0xb8, 0xfa, 0x38, 0x50, 0x28, 0xfb, 0x99, 0x13,
  0x9c, 0x50, 0xb4, 0xea, 0xbd, 0x93, 0x33, 0xd6, 0xe2, 0x1a, 0x96, 0x3b,
  0xac, 0xec, 0x65, 0x57, 0x2b, 0xaa, 0x96, 0x9d, 0x5d, 0xbf, 0x5b, 0x4b,
  0xe9, 0x52, 0x5c, 0x15, 0x1e, 0xf8, 0x45, 0xaf, 0xef, 0x58, 0xa2, 0xae,
  0x40, 0x44, 0xd2, 0x57, 0x6f, 0x48, 0xac, 0x60, 0xe1, 0x99, 0x46, 0xfd,
  0xf0, 0x93, 0x38, 0xd8, 0xda, 0x07, 0x91, 0xbe, 0x58, 0xae, 0xe0, 0xcc,
  0x38, 0xaa, 0x9f, 0xdf, 0x03, 0xce, 0x40, 0x75, 0x47, 0xe8, 0x4d, 0xc0,
  0x11, 0x8d, 0xf0, 0x00, 0xb6, 0xf7, 0xcd, 0x97, 0x3a, 0x2d, 0x7f, 0x12,
  0x11, 0xa0, 0x1f, 0x6b, 0x44, 0x17, 0x45, 0xa8, 0xe8, 0xec, 0xbc, 0x39,
  0xdf, 0xd3, 0x82, 0xee, 0x24, 0xa5, 0xa5, 0xec, 0xd7, 0x79, 0x12, 0xc0,
  0x09, 0x1e, 0x43, 0x38, 0xc4, 0xb2, 0x94, 0x55, 0xdb, 0x05, 0x2d, 0x3e,
  0xf0, 0xc5, 0x9a, 0xa4, 0x31, 0x3b, 0x21, 0xe8, 0x9a, 0xd9, 0xd3, 0x03,
  0x2e, 0x9e, 0xc6, 0xe6, 0xcd, 0x38, 0xbf, 0x29, 0xf5, 0x06, 0xe7, 0x6f,
  0x98, 0x24, 0xf7, 0x52, 0x17, 0x98, 0x5c, 0xf0, 0x43, 0xcd, 0x86, 0x07,
  0x01, 0x69, 0xb2, 0xf7, 0x12, 0xd8, 0xc9, 0x0f, 0xd3, 0x95, 0xa9, 0x52,
  0xe1, 0x22, 0xf8, 0xb8, 0x5f, 0x07, 0x11, 0x0a, 0x8f, 0xb6, 0x95, 0x4a,
  0x0c, 0x13, 0xa4, 0x1f, 0xa8, 0x39, 0x2b, 0xe4, 0x3e, 0x61, 0xa0, 0x17,
  0x23, 0x16, 0xe1, 0x62, 0xdb, 0xac, 0xae, 0xe2, 0xb1, 0x7f, 0x90, 0xd4,
  0x51, 0x6d, 0x28, 0x29, 0x02, 0xbc, 0x10, 0x55, 0xbd, 0x9a, 0x2f, 0x23,
  0x4a, 0x64, 0x3c, 0x46, 0x58, 0x10, 0xe1, 0x73, 0xcd, 0xe8, 0xba, 0x58,
  0x1e, 0x97, 0x2f, 0x2a, 0x1b, 0xb7, 0xa5, 0xd9, 0x1c, 0xe7, 0xbc, 0x4b,
  0x21, 0x16, 0xee, 0x2d, 0xf8, 0x48, 0xf7, 0x50, 0x49, 0x1b, 0xfb, 0x02,
  0x70, 0x0a, 0x96, 0x29, 0x31, 0x44, 0x1c, 0x77, 0xce, 0xb4, 0xff, 0xd1,
  0xfe, 0x37, 0xb5, 0xde, 0xec, 0x08, 0x3b, 0x24, 0xe8, 0x1d, 0xd1, 0x19,
  0xe6, 0x9b, 0x58, 0xe5, 0x36, 0xcf, 0xd9, 0xa9, 0xf1, 0x76, 0x19, 0x43,
  0x01, 0x1f, 0x86, 0x41, 0x2c, 0xa0, 0x53, 0xe8, 0x30, 0xce, 0x9c, 0xd4,
  0xfe, 0xe2, 0xf1, 0xdc, 0xcd, 0x63, 0xb9, 0x1e, 0x59, 0x9a, 0x51, 0x14,
  0x3e, 0xbb, 0xa0, 0xa9, 0xdf, 0xef, 0x25, 0x05, 0xc1, 0x03, 0xcb, 0x17,
  0x01, 0x3b, 0x55, 0x7c, 0xc7, 0x27, 0x1d, 0x0f, 0x74, 0xd8, 0xcd, 0x6b,
  0x83, 0xee, 0xd6, 0x54, 0x51, 0x06, 0x59, 0x5c, 0x52, 0x29, 0xd0, 0x52,
  0xf7, 0x36, 0x05, 0xd0, 0xdb, 0x9f, 0xc6, 0x33, 0xcd, 0xbe, 0x23, 0x51,
  0x3e, 0x0a, 0xcc, 0x5b, 0x4e, 0xf2, 0xc0, 0x5f, 0x91, 0x55, 0xa0, 0xcf,
  0xf8, 0xc7, 0xeb, 0x74, 0x17, 0x5e, 0xa0, 0xcd, 0x12, 0x79, 0x00, 0x7f,
  0x0a, 0xd0, 0xe6, 0xf0, 0xf1, 0x12, 0x08, 0x1e, 0xd1, 0x45, 0x85, 0x11,
  0x38, 0x34, 0xe1, 0x0d, 0xcb, 0x18, 0x9e, 0x20, 0x31, 0x36, 0x2e, 0xf0,
  0xe0, 0xeb, 0xac, 0x41, 0x25, 0x5b, 0xe3, 0xf6, 0x31, 0x37, 0x98, 0xde,
  0xd8, 0x03, 0x06, 0x64, 0x41, 0x06, 0x27, 0x3e, 0xc5, 0x5b, 0xcf, 0x50,
  0x87, 0x3a, 0xdb, 0xf0, 0xfb, 0xc9, 0xe0, 0x5a, 0x01, 0x15, 0xc5, 0x38,
  0x1b, 0x0d, 0x22, 0x12, 0x03, 0xd3, 0xe2, 0x37, 0xfc, 0x2b, 0xc6, 0x38,
  0x4c, 0x61, 0xd6, 0x0f, 0x5c, 0x37, 0xf5, 0xd7, 0xdf, 0xcd, 0x8d, 0x23,
  0x3b, 0xcb, 0xc9, 0x29, 0xeb, 0x46, 0xdb, 0x0e, 0x0e, 0x38, 0x81, 0xd3,
  0x09, 0xec, 0x03, 0xe4, 0x19, 0xf9, 0xcf, 0x28, 0x40, 0x07, 0xe8, 0x03,
  0x54, 0x4b, 0x90, 0x1c, 0x1b, 0xdb, 0x2a, 0xc5, 0xb8, 0xf4, 0xae, 0x4f,
  0x4c, 0xd3, 0xea, 0xc3, 0x25, 0x38, 0xe7, 0x10, 0xb5, 0x98, 0x20, 0xba,
  0x0f, 0xe6, 0xbc, 0x41, 0x1b, 0xab, 0xd8, 0x2e, 0xc2, 0xee, 0xd9, 0x44,
  0x4a, 0x1f, 0x10, 0x46, 0x30, 0xf1, 0x10, 0xd6, 0x28, 0x37, 0x08, 0x0d,
  0x49, 0x5e, 0xca, 0xd8, 0x2b, 0xed, 0x2e, 0xca, 0x38, 0x3e, 0x44, 0xd9,
  0x2f, 0xff, 0x59, 0x10, 0x3e, 0xf3, 0x22, 0xd2, 0x41, 0x0d, 0x14, 0x02,
  0xf7, 0xed, 0xc5, 0x39, 0xbc, 0x12, 0x45, 0x45, 0xf4, 0xdb, 0xe3, 0xb4,
  0x29, 0xc5, 0x44, 0x6b, 0x5f, 0xa2, 0xb8, 0x6b, 0x3c, 0x5b, 0xe5, 0x12,
  0x06, 0x2e, 0x03, 0xe5, 0x57, 0xfa, 0xe9, 0xd5, 0xe4, 0x06, 0xdc, 0xba,
  0xd6, 0x26, 0x7f, 0x44, 0x19, 0xe1, 0x51, 0x0c, 0x6f, 0xdb, 0x1d, 0x2c,
  0xe4, 0xa0, 0x46, 0x1d, 0x2e, 0xc1, 0x62, 0x45, 0x25, 0xfd, 0xd5, 0xde,
  0x6b, 0xc5, 0x3e, 0xe1, 0x6e, 0x05, 0xd3, 0xf3, 0xb2, 0x49, 0x04, 0xfd,
  0xb7, 0xed, 0x00, 0xe7, 0x40, 0xfc, 0x4b, 0xc9, 0xc8, 0x58, 0x36, 0xba,
  0x07, 0x4a, 0xf6, 0x35, 0xa2, 0xe6, 0x35, 0x9c, 0x34, 0xe0, 0x31, 0x0b,
  0xbf, 0xdc, 0xba, 0xf8, 0x0a, 0x17, 0xdc, 0xb6, 0x07, 0xd4, 0x6f, 0xe6,
  0x1d, 0x1d, 0x93, 0x4c, 0xdb, 0xe9, 0x57, 0x7b, 0x0e, 0xb7, 0x9f, 0xff,
  0x4a, 0x0d, 0x86, 0x01, 0x76, 0x0a, 0x44, 0xc0, 0x0f, 0x8e, 0x48, 0x06,
  0xdd, 0xbc, 0x63, 0xc4, 0xf3, 0x06, 0x0b, 0xf7, 0xf3, 0x1a, 0xfa, 0xb6,
  0x36, 0xcc, 0xc7, 0x46, 0x0a, 0x03, 0x68, 0xc8, 0xfe, 0xf1, 0x1c, 0x46,
  0x81, 0xd3, 0xd9, 0x6f, 0x43, 0x2b, 0x13, 0x7a, 0xf5, 0x50, 0xff, 0xea,
  0x6d, 0x35, 0x02, 0x76, 0x5c, 0x06, 0x20, 0x5d, 0x13, 0x18, 0xc1, 0xf1,
  0x3d, 0x71, 0xe4, 0x5a, 0xf6, 0x68, 0x06, 0x50, 0x36, 0x56, 0x70, 0x29,
  0xec, 0x39, 0x1f, 0x5d, 0x2d, 0x71, 0xcb, 0xad, 0xb7, 0x1e, 0xca, 0x06,
  0xc1, 0x49, 0xcf, 0x49, 0x24, 0x24, 0x00, 0xdb, 0xe5, 0x59, 0xa1, 0x5b,
  0x09, 0x2d, 0xea, 0x5b, 0xd1, 0x95, 0x18, 0x5d, 0xb3, 0xaf, 0xbf, 0x56,
  0xf8, 0xcc, 0x6d, 0xf0, 0x22, 0x10, 0xbd, 0xff, 0x70, 0x03, 0x62, 0x6a,
  0xf4, 0xd8, 0x52, 0x54, 0xee, 0xca, 0xc9, 0xea, 0x07, 0x00, 0x3a, 0x33,
  0x10, 0xe8, 0xcb, 0x49, 0x18, 0x0a, 0xba, 0x73, 0x26, 0xf4, 0x2d, 0xff,
  0x5d, 0x25, 0xf2, 0x63, 0x7a, 0xc3, 0x1c, 0xcc, 0xb9, 0xef, 0x0d, 0xf1,
  0x2a, 0x3b, 0x59, 0xde, 0x66, 0x68, 0xf7, 0x3f, 0xec, 0xe1, 0xd4, 0xb9,
  0xcd, 0xc3, 0x42, 0x10, 0x53, 0xfd, 0xd8, 0x02, 0xe5, 0x1f, 0xbd, 0xba,
  0x4a, 0xe6, 0xe5, 0x45, 0xd3, 0x27, 0x10, 0x2f, 0x0d, 0x27, 0x63, 0xe2,
  0x14, 0x56, 0xe4, 0x69, 0x1d, 0x31, 0xfa, 0x32, 0x42, 0xd0, 0x20, 0xe9,
  0xf5, 0xf3, 0x51, 0xb4, 0x08, 0x29, 0x2e, 0xca, 0xef, 0x12, 0x53, 0x9c,
  0x37, 0x19, 0xbe, 0x97, 0xfd, 0xd0, 0xcb, 0x37, 0x05, 0x2f, 0x7f, 0x3d,
  0x65, 0x3b, 0x9a, 0xe3, 0x5b, 0xa4, 0xc2, 0xd0, 0x12, 0x26, 0x52, 0xff,
  0x16, 0xfd, 0xdb, 0x30, 0x49, 0x9d, 0x57, 0xbb, 0xb4, 0x0a, 0x52, 0xb9,
  0x13, 0x11, 0x13, 0xda, 0xf9, 0x0e, 0x3c, 0x3d, 0x03, 0xa5, 0x3c, 0xb4,
  0xbc, 0x43, 0x42, 0x3e, 0x45, 0x25, 0x42, 0xd3, 0xd1, 0x25, 0x48, 0x2b,
  0xb5, 0xd0, 0xe7, 0x3d, 0x92, 0x60, 0xc3, 0x20, 0x04, 0xd2, 0xdb, 0x35,
  0xb8, 0xf6, 0xb7, 0xe6, 0xf7, 0xd4, 0x36, 0x62, 0x21, 0x43, 0xd3, 0x58,
  0x1c, 0x9c, 0xee, 0xce, 0xd1, 0xd2, 0xac, 0x4f, 0xf3, 0x96, 0xdd, 0x28,
  0x4e, 0x98, 0xa3, 0x16, 0x95, 0xba, 0x4c, 0x73, 0xb7, 0x5c, 0x6d, 0xc1,
  0x11, 0xb4, 0x31, 0x59, 0xdd, 0x0a, 0x55, 0x91, 0x62, 0xa3, 0xa7, 0x2a,
  0xc6, 0xfd, 0x22, 0x3d, 0x4e, 0xaf, 0x10, 0x2d, 0xd5, 0xbb, 0x72, 0x88,
  0xec, 0xdc, 0x61, 0x95, 0x9d, 0xcd, 0x39, 0xdf, 0xa1, 0x1c, 0xaa, 0x81,
  0x45, 0x36, 0xeb, 0xe6, 0x0d, 0x8c, 0x16, 0xee, 0x41, 0x2d, 0x48, 0xbd,
  0xb0, 0xb8, 0x5f, 0x49, 0x77, 0xa3, 0x90, 0x50, 0x49, 0xe2, 0x28, 0x48,
  0x19, 0xd5, 0x52, 0x48, 0xf8, 0x47, 0x3a, 0x0c, 0xb5, 0x60, 0xcd, 0x6b,
  0xbe, 0x66, 0xf9, 0xd9, 0x91, 0xf9, 0x75, 0x29, 0xa7, 0x0d, 0x41, 0xa0,
  0x3f, 0x00, 0x0f, 0x12, 0x6a, 0xc6, 0x9b, 0xc3, 0xdc, 0x2c, 0xae, 0x00,
  0xdb, 0xe7, 0xd8, 0x26, 0xee, 0x9f, 0x33, 0xf2, 0x39, 0xd3, 0x33, 0x11,
  0xda, 0x20, 0x5f, 0xd9, 0x2a, 0xd9, 0x2d, 0x2c, 0xd4, 0x0d, 0xf7, 0x1b,
  0xdd, 0x1c, 0xa4, 0xa9, 0x0d, 0x26, 0xbf, 0x62, 0x20, 0xdc, 0xc1, 0x64,
  0xde, 0xa6, 0x41, 0x28, 0x57, 0xd9, 0xbc, 0x1c, 0xe3, 0x1c, 0xd3, 0x0d,
  0xb0, 0xb0, 0x54, 0x16, 0x36, 0x1d, 0x01, 0xb9, 0xb7, 0x28, 0xde, 0x4d,
  0x0e, 0x4a, 0x2a, 0x1b, 0x17, 0x1f, 0xf4, 0xfe, 0xdd, 0xc4, 0x3f, 0x49,
  0xcc, 0x0b, 0x10, 0x46, 0x04, 0x1d, 0x25, 0x13, 0xcf, 0x1b, 0xbc, 0x09,
  0xdc, 0x21, 0x19, 0x30, 0x1a, 0xd5, 0x01, 0xfd, 0x44, 0x64, 0x90, 0x6b,
  0x8a, 0x02, 0xd1, 0x47, 0xf4, 0xe0, 0x50, 0x57, 0x3a, 0x4a, 0x88, 0x1d,
  0x08, 0x2f, 0xfa, 0xef, 0xde, 0xea, 0x9b, 0x28, 0xdd, 0x8d, 0xef, 0x45,
  0x30, 0xe6, 0xcd, 0xf8, 0x26, 0x4b, 0x1b, 0xd4, 0x0e, 0xf9, 0xae, 0x4b,
  0x15, 0x81, 0xb3, 0x51, 0xd8, 0xd3, 0x09, 0xc1, 0x21, 0x23, 0x17, 0x51,
  0x07, 0x10, 0x81, 0x6f, 0x1e, 0xac, 0x43, 0x03, 0x58, 0x32, 0xde, 0x37,
  0x5e, 0x08, 0xc3, 0xd3, 0x38, 0x05, 0x19, 0x56, 0x5d, 0x24, 0x29, 0x18,
  0x13, 0x3b, 0x71, 0xf0, 0x2f, 0x44, 0x86, 0xea, 0x46, 0x36, 0x50, 0xcb,
  0x43, 0xbf, 0x3e, 0x01, 0xcf, 0x4f, 0x2d, 0x40, 0x3d, 0xf5, 0x90, 0xa5,
  0xa5, 0x2a, 0xc5, 0x3d, 0x13, 0xce, 0x0b, 0xfd, 0x21, 0xe5, 0x87, 0x19,
  0x18, 0x46, 0xed, 0xca, 0x60, 0x10, 0xaf, 0xec, 0x24, 0xbd, 0x1b, 0x12,
  0x3f, 0xdb, 0xeb, 0x2a, 0x4f, 0x3f, 0x1a, 0xdb, 0x0e, 0xdd, 0x15, 0x3d,
  0x3c, 0x25, 0x18, 0xad, 0xb4, 0x3e, 0x66, 0x2a, 0x2f, 0xca, 0xac, 0xe0,
  0xd9, 0xfb, 0x85, 0x00, 0x2b, 0xf9, 0x2d, 0x20, 0x19, 0x37, 0xe8, 0x4c,
  0x72, 0x29, 0xb1, 0x56, 0x0a, 0xf3, 0x17, 0xee, 0x68, 0xd5, 0xbf, 0x13,
  0xb3, 0x40, 0x0a, 0xe2, 0x48, 0x63, 0x1d, 0x36, 0x7c, 0x66, 0x12, 0xb4,
  0x10, 0xa5, 0x39, 0x09, 0xa2, 0x38, 0x6f, 0x58, 0x37, 0x61, 0x35, 0xb5,
  0x20, 0x26, 0xf8, 0x39, 0xdb, 0x88, 0xf9, 0x5e, 0xa7, 0x6f, 0x3b, 0xba,
  0x0f, 0x04, 0x05, 0x09, 0x21, 0x90, 0x6f, 0x0b, 0x62, 0xcc, 0x0f, 0x65,
  0xba, 0xc1, 0x4c, 0xbb, 0x0d, 0xc2, 0x3d, 0x4c, 0x19, 0x2e, 0xfc, 0xba,
  0xa0, 0xe0, 0xb4, 0xdc, 0xd5, 0x46, 0x2b, 0xc2, 0xa1, 0xe5, 0x75, 0xc8,
  0xe5, 0x5f, 0x64, 0x34, 0x1a, 0x27, 0xea, 0x62, 0x24, 0xd9, 0xec, 0xcc,
  0x6f, 0x10, 0xab, 0xef, 0x41, 0xdb, 0x63, 0x2c, 0xf7, 0xc9, 0xdd, 0xd2,
  0x05, 0x3b, 0x73, 0x17, 0xe9, 0xc4, 0x2f, 0xea, 0x77, 0x3e, 0xfa, 0x9e,
  0xb0, 0x4a, 0x53, 0xa8, 0xbc, 0xba, 0x1a, 0xa5, 0xc5, 0xb2, 0x23, 0x8e,
  0x32, 0x11, 0xf6, 0x7f, 0xe5, 0x23, 0x5e, 0x74, 0xe2, 0x70, 0x40, 0xbd,
  0x00, 0x62, 0xca, 0x1e, 0x1c, 0x79, 0xd3, 0x19, 0xad, 0x2f, 0x02, 0x2f,
  0xc8, 0xf4, 0x5f, 0x5c, 0xf6, 0x1b, 0xc3, 0xdf, 0xfd, 0x03, 0x00, 0xe6,
  0xec, 0x10, 0xdf, 0x02, 0x55, 0xfc, 0x39, 0xea, 0xe4, 0x35, 0xc7, 0xc4,
  0x64, 0x81, 0x75, 0x37, 0x5f, 0x53, 0x40, 0x49, 0x02, 0x12, 0x39, 0x19,
  0x62, 0xc3, 0xb7, 0x3f, 0x52, 0x45, 0x69, 0x38, 0xf1, 0x11, 0xc4, 0x62,
  0xba, 0x3c, 0xf7, 0x44, 0xe9, 0x40, 0x28, 0x2d, 0x25, 0xff, 0x3a, 0x0e,
  0xf3, 0xdf, 0x27, 0x13, 0xf5, 0xea, 0x67, 0xb7, 0x3b, 0x9c, 0x3a, 0x9f,
  0x38, 0xeb, 0x53, 0x3b, 0xc9, 0x4a, 0xe8, 0xbe, 0x43, 0x16, 0xfa, 0x28,
  0x66, 0xc7, 0x1d, 0xc1, 0x4c, 0x58, 0xca, 0xb9, 0xf2, 0xc2, 0x27, 0x2f,
  0x14, 0x1b, 0x74, 0x53, 0x12, 0xc2, 0x3f, 0x21, 0x32, 0xc9, 0x7a, 0xce,
  0xe5, 0xdc, 0x41, 0x01, 0xeb, 0x14, 0xe9, 0x30, 0xe9, 0xf5, 0xea, 0xad,
  0xef, 0xf0, 0xfc, 0x5d, 0x5f, 0x06, 0x2b, 0x13, 0xb4, 0xee, 0x43, 0xaf,
  0x3d, 0x0f, 0x28, 0x31, 0x22, 0x20, 0x6e, 0xfd, 0xe2, 0x10, 0xc6, 0x42,
  0x98, 0xf2, 0xfd, 0xb3, 0xcf, 0xf8, 0x12, 0x0f, 0x6c, 0xe8, 0x6a, 0x94,
  0xdb, 0x14, 0xb4, 0xcb, 0x18, 0x86, 0x64, 0x37, 0x9b, 0xc7, 0x42, 0xd1,
  0x90, 0x18, 0xc2, 0x4d, 0xd1, 0x20, 0xe9, 0x6e, 0xd7, 0x4b, 0x00, 0xf1,
  0xcb, 0x1d, 0x81, 0xfe, 0x05, 0xea, 0x0c, 0x3d, 0xbd, 0xf2, 0x31, 0x40,
  0xb9, 0xdb, 0x08, 0xec, 0xf0, 0xfb, 0x99, 0x54, 0x36, 0xf8, 0xb4, 0xe2,
  0xbc, 0xb2, 0x0f, 0xdd, 0x17, 0x4c, 0x50, 0xea, 0x50, 0x4f, 0x9b, 0x43,
  0xca, 0xc3, 0xbd, 0x4b, 0xaf, 0xa5, 0x15, 0x66, 0xb2, 0x07, 0x03, 0x18,
  0x20, 0x46, 0x0e, 0xdb, 0x9a, 0xbb, 0xb3, 0x3c, 0xd6, 0xd0, 0x1c, 0x60,
  0x08, 0xe9, 0x99, 0x10, 0x38, 0xf3, 0xae, 0x13, 0xb0, 0xdb, 0xf3, 0xd7,
  0xda, 0x0c, 0xe2, 0x40, 0x08, 0x18, 0xd3, 0x4b, 0xe3, 0x25, 0xaa, 0x51,
  0xf0, 0xf0, 0xa3, 0x6d, 0xfe, 0xed, 0xd1, 0x27, 0xd5, 0x5a, 0x14, 0xfd,
  0x47, 0xe0, 0x85, 0x69, 0xc3, 0xb5, 0x8f, 0x57, 0xb2, 0x88, 0x41, 0x0c,
  0x1c, 0x5d, 0xc2, 0xf2, 0xd2, 0x08, 0xc4, 0xe7, 0xb4, 0xe0, 0x11, 0x58,
  0x32, 0xa5, 0x29, 0x38, 0x43, 0xc5, 0x52, 0xb8, 0x54, 0xdd, 0xb2, 0x5b,
  0xf8, 0x5a, 0x6b, 0x52, 0xfc, 0xb3, 0x2f, 0x40, 0xc9, 0x6c, 0x59, 0x4f,
  0x7f, 0xdd, 0x29, 0x5b, 0xee, 0x9f, 0x30, 0xbc, 0x32, 0x2a, 0x31, 0xba,
  0x52, 0xe2, 0x2b, 0x0c, 0xeb, 0xfb, 0x3c, 0x31, 0x40, 0x14, 0x5f, 0xcc,
  0xf8, 0xd0, 0xf8, 0xe7, 0xd2, 0xec, 0xd9, 0x53, 0x91, 0xa5, 0x10, 0x81,
  0x30, 0xd7, 0x56, 0x5f, 0xd0, 0xaa, 0x09, 0xd9, 0xe5, 0x6f, 0x3c, 0xe1,
  0x08, 0x48, 0x20, 0x7b, 0x1c, 0x53, 0x7c, 0x0e, 0xb9, 0xd3, 0xc1, 0x55,
  0xaf, 0x3a, 0x0c, 0x1e, 0xbd, 0xc7, 0x4b, 0xc9, 0x1d, 0x2e, 0xf4, 0xe8,
  0xbf, 0x40, 0xe7, 0xe5, 0xfa, 0xf4, 0x7c, 0xca, 0xca, 0x12, 0xda, 0xe9,
  0xda, 0x19, 0x06, 0x37, 0x1d, 0xc9, 0xbb, 0x3c, 0xdb, 0xf2, 0x19, 0xba,
  0x65, 0x55, 0x40, 0x5e, 0x52, 0x26, 0xd8, 0x14, 0x53, 0x1c, 0xd6, 0xd6,
  0xe8, 0x70, 0x42, 0xaa, 0xfa, 0x09, 0x5e, 0xdc, 0x38, 0xd8, 0x0d, 0x9d,
  0xdc, 0x57, 0x45, 0x07, 0x56, 0xec, 0x0d, 0x47, 0x9b, 0xfa, 0x24, 0x33,
  0xa5, 0x02, 0xb4, 0x16, 0xa7, 0xde, 0xb5, 0x3f, 0xfa, 0x53, 0xfd, 0x52,
  0x3c, 0x6b, 0xfd, 0x6b, 0xb3, 0xef, 0x9a, 0x71, 0x5c, 0xd5, 0x15, 0x08,
  0xf8, 0x4e, 0xcf, 0x07, 0x54, 0x16, 0x1e, 0x05, 0x1f, 0xe2, 0xe7, 0xcd,
  0x01, 0xc9, 0x4f, 0xd8, 0x46, 0xf6, 0x30, 0xac, 0x1f, 0x11, 0xe5, 0x4b,
  0xda, 0xb8, 0xe5, 0x7f, 0xf2, 0xb4, 0x4f, 0x7d, 0xd5, 0x3c, 0xec, 0xdd,
  0xf1, 0x5a, 0xbf, 0xe8, 0x65, 0x59, 0x9d, 0x78, 0xd3, 0xd8, 0x11, 0x01,
  0xce, 0x54, 0xee, 0xa9, 0x34, 0xe1, 0x9f, 0xcf, 0x76, 0xb2, 0xc5, 0x1e,
  0x57, 0x0c, 0x1e, 0x1a, 0x3d, 0x1c, 0xef, 0xd2, 0xf8, 0xf9, 0xc9, 0x71,
  0xcc, 0xd1, 0x23, 0x13, 0x04, 0xdb, 0xd6, 0xef, 0x09, 0x23, 0xc3, 0x12,
  0xe0, 0x7a, 0x22, 0x71, 0x70, 0x24, 0xc3, 0x54, 0xf8, 0x0a, 0x3c, 0x22,
  0xcd, 0x31, 0x2c, 0x33, 0xda, 0x01, 0x29, 0xf4, 0x35, 0xd5, 0x21, 0x67,
  0x56, 0xaa, 0x28, 0x5d, 0xe1, 0x6e, 0x33, 0x3f, 0xf1, 0x68, 0xd1, 0xd1,
  0x4f, 0x40, 0x3a, 0xd3, 0xeb, 0x36, 0xae, 0x25, 0xf7, 0x4d, 0xe2, 0xe7,
  0x49, 0xc6, 0xea, 0xb7, 0x2e, 0x13, 0xf7, 0xa4, 0xc8, 0x21, 0xe0, 0x9c,
  0xe9, 0x47, 0x10, 0xe0, 0xf9, 0xfd, 0x30, 0xb8, 0xc2, 0x3f, 0x21, 0x23,
  0xb0, 0x19, 0x41, 0xb2, 0xdf, 0x2e, 0xdf, 0xc3, 0x20, 0x01, 0x58, 0xf4,
  0x09, 0x6b, 0x01, 0x58, 0x23, 0x01, 0x34, 0x48, 0xea, 0xe0, 0x28, 0x28,
  0x1b, 0xc3, 0xed, 0x08, 0x62, 0x38, 0x1a, 0xb7, 0xdb, 0x49, 0x09, 0xcf,
  0x50, 0xac, 0xfe, 0x43, 0x3d, 0xe7, 0x72, 0xae, 0x6c, 0xff, 0x34, 0x33,
  0x38, 0xfc, 0xd4, 0xd6, 0x00, 0x32, 0xbe, 0x0b, 0x23, 0x34, 0x42, 0x41,
  0x07, 0x42, 0x5e, 0x54, 0xf5, 0x3b, 0x3d, 0x5a, 0x41, 0x2f, 0xf5, 0x1a,
  0xd9, 0x32, 0x17, 0x0b, 0x0d, 0xdf, 0x6b, 0xa9, 0xdd, 0x73, 0x1c, 0xf0,
  0x0a, 0x08, 0x00, 0x4d, 0x4d, 0xfe, 0x7f, 0xb9, 0x07, 0x09, 0x1b, 0xe2,
  0xf5, 0xe6, 0x02, 0x17, 0x60, 0xdc, 0xff, 0xcf, 0xdd, 0xac, 0x50, 0xe9,
  0x0d, 0x46, 0xdf, 0x12, 0xec, 0xb0, 0x30, 0x05, 0x2d, 0x33, 0x91, 0x2c,
  0xe8, 0x07, 0x18, 0x3f, 0xe7, 0xc7, 0xb4, 0x06, 0x17, 0xd9, 0xd5, 0x61,
  0xb0, 0xd9, 0xdd, 0xfe, 0xf3, 0x46, 0xd1, 0xe0, 0x09, 0x02, 0xba, 0x07,
  0x0b, 0xd8, 0x1b, 0x3d, 0xd5, 0x3b, 0x26, 0xb7, 0x54, 0x1f, 0x81, 0x69,
  0x98, 0xe8, 0x8a, 0x2f, 0xcd, 0xdf, 0xf3, 0x03, 0xde, 0x26, 0x13, 0xf2,
  0x31, 0x2f, 0xe0, 0xf6, 0xad, 0xae, 0x97, 0x0a, 0xda, 0x89, 0xf0, 0x16,
  0xb8, 0x40, 0x19, 0x3a, 0x50, 0x04, 0x90, 0x02, 0x55, 0xdc, 0xc4, 0xf3,
  0x2c, 0x01, 0xbc, 0xe5, 0x3e, 0xc2, 0x13, 0xe5, 0xfe, 0xeb, 0x83, 0xe9,
  0x97, 0xca, 0x25, 0x6e, 0xc8, 0xcc, 0xec, 0x39, 0xc6, 0x49, 0xd1, 0xf2,
  0x04, 0x53, 0x09, 0xe6, 0x10, 0x41, 0xda, 0xf0, 0x25, 0xb5, 0x04, 0x59,
  0xe9, 0x15, 0x03, 0xf2, 0x5f, 0x01, 0xac, 0x62, 0x06, 0x31, 0x8b, 0x4f,
  0xa9, 0xd8, 0x2a, 0x46, 0xea, 0xfa, 0x68, 0x44, 0x59, 0x16, 0xc6, 0xff,
  0xef, 0xc7, 0x50, 0xc9, 0x36, 0x03, 0x97, 0xa0, 0x14, 0xfa, 0x9c, 0x4b,
  0x0a, 0x95, 0xbb, 0xfc, 0x12, 0x8f, 0x7f, 0x5e, 0x83, 0x8e, 0xf4, 0x3f,
  0x43, 0x57, 0x0e, 0xb6, 0x20, 0xf5, 0xd8, 0x0a, 0x68, 0xd5, 0x13, 0x3d,
  0x42, 0x50, 0x30, 0x04, 0x70, 0xdc, 0x2e, 0xd7, 0x9f, 0xc8, 0x35, 0x60,
  0x3c, 0xcd, 0xd3, 0x5c, 0x52, 0x00, 0x3e, 0x78, 0x01, 0xec, 0x3a, 0x3f,
  0xc7, 0x28, 0x85, 0xeb, 0x3a, 0x73, 0xc1, 0x86, 0x93, 0xd8, 0xf3, 0xba,
  0x2d, 0x0e, 0x1d, 0x73, 0xcb, 0xcd, 0x5c, 0x60, 0xfe, 0xb7, 0x37, 0xc0,
  0xc0, 0xad, 0x2b, 0x08, 0x9c, 0x22, 0x8f, 0x0b, 0x37, 0x06, 0xa4, 0x1d,
  0x86, 0x17, 0x20, 0x27, 0x84, 0x10, 0x83, 0x50, 0x01, 0x9d, 0x40, 0xce,
  0x2b, 0xa2, 0x53, 0xae, 0x3e, 0xd4, 0xca, 0xa6, 0x33, 0x75, 0x37, 0xa3,
  0x7d, 0x9f, 0x0e, 0x33, 0xb2, 0xfe, 0x9c, 0x87, 0xac, 0xa0, 0x86, 0x5f,
  0x29, 0x63, 0xbd, 0x91, 0xea, 0x1c, 0x7b, 0x58, 0x90, 0x34, 0xe9, 0x8f,
  0x16, 0xe7, 0x42, 0xcb, 0x2d, 0x36, 0xfb, 0xca, 0xa8, 0x6c, 0xc9, 0xb6,
  0xda, 0xdd, 0x7f, 0xba, 0x4f, 0x23, 0x17, 0x1a, 0x35, 0xe3, 0x17, 0x26,
  0x33, 0xd0, 0x5d, 0xb9, 0xc7, 0xdb, 0xed, 0x03, 0x33, 0xe1, 0x3b, 0x4c,
  0x56, 0xef, 0xef, 0xc9, 0x05, 0x1c, 0x24, 0xda, 0x49, 0x15, 0xfa, 0x65,
  0x43, 0xb1, 0x1d, 0xb2, 0x92, 0xc7, 0x27, 0x3a, 0xf1, 0x51, 0x1c, 0xb1,
  0xd1, 0xd9, 0x77, 0x2e, 0x0a, 0xdd, 0x00, 0x15, 0x27, 0x6b, 0x27, 0xd5,
  0x04, 0x43, 0xf3, 0xa5, 0xb6, 0xd5, 0xfd, 0xa9, 0xaf, 0xaf, 0xd6, 0x76,
  0x40, 0x1e, 0xf1, 0x06, 0x3e, 0x6b, 0x89, 0xeb, 0xe1, 0x63, 0x0a, 0x6d,
  0x27, 0xb1, 0x1e, 0xb8, 0xd9, 0x39, 0xe7, 0x04, 0xe8, 0x06, 0x35, 0x4e,
  0x5f, 0xd9, 0x5a, 0x59, 0x21, 0x0b, 0xd3, 0xe5, 0x27, 0xc3, 0xe3, 0xcf,
  0xd0, 0x5b, 0x12, 0x0e, 0xba, 0xaf, 0x43, 0xd1, 0xc0, 0x1f, 0xc3, 0xe6,
  0x09, 0x10, 0xdd, 0xa9, 0xc7, 0xbd, 0xcd, 0x4a, 0xf7, 0x23, 0x2f, 0xf5,
  0x16, 0xea, 0xcc, 0x28, 0xe8, 0xfe, 0xce, 0x15, 0xc0, 0xd5, 0xe5, 0x22,
  0xd3, 0xc6, 0x61, 0x1a, 0xa2, 0x08, 0x30, 0x4d, 0xe5, 0x9b, 0x29, 0xee,
  0xf2, 0xd6, 0x85, 0x53, 0x07, 0x53, 0xe9, 0x0f, 0xe3, 0xd4, 0xe1, 0x54,
  0xf0, 0xb3, 0x27, 0x39, 0xcc, 0x70, 0xe1, 0x04, 0x25, 0x4a, 0xcd, 0x76,
  0x92, 0x1b, 0xd5, 0x0e, 0x03, 0x6c, 0xd4, 0xf9, 0xf9, 0x11, 0xc8, 0x2a,
  0xe9, 0xd4, 0xc7, 0x01, 0xdd, 0xcc, 0x11, 0x56, 0x39, 0x2c, 0xd3, 0xf8,
  0xf5, 0x48, 0xd4, 0x3f, 0xc3, 0x24, 0x28, 0x5c, 0xa3, 0xc2, 0x8b, 0x42,
  0x3b, 0xc7, 0x33, 0xcd, 0xad, 0xf9, 0xe3, 0x25, 0x51, 0xcd, 0xcd, 0xf5,
  0xd1, 0xae, 0xef, 0xfc, 0x9e, 0xd7, 0xd1, 0x11, 0xb0, 0x0e, 0x39, 0xfe,
  0xf3, 0xa2, 0x00, 0x36, 0xfc, 0x33, 0xd0, 0xfa, 0xee, 0xd5, 0xfa, 0x59,
  0xe5, 0x02, 0xe7, 0x3f, 0x31, 0xc5, 0x56, 0x30, 0x96, 0xd6, 0x81, 0x4c,
  0x4f, 0xb0, 0xb1, 0x38, 0xf4, 0x30, 0xfe, 0xf8, 0x37, 0x20, 0x27, 0x0f,
  0xa2, 0xd6, 0xff, 0xff, 0x04, 0x00, 0x00, 0x00, 0x80, 0x00, 0x00, 0x00,
  0x6b, 0xf2, 0xff, 0xff, 0x11, 0xed, 0xff, 0xff, 0xd7, 0xe5, 0xff, 0xff,
  0x55, 0x06, 0x00, 0x00, 0x99, 0x12, 0x00, 0x00, 0x44, 0x0d, 0x00, 0x00,
  0x74, 0xf9, 0xff, 0xff, 0x83, 0xf2, 0xff, 0xff, 0x35, 0xf3, 0xff, 0xff,
  0xc2, 0x0b, 0x00, 0x00, 0xf7, 0xf1, 0xff, 0xff, 0xe7, 0xf3, 0xff, 0xff,
  0x97, 0xfa, 0xff, 0xff, 0x99, 0xf2, 0xff, 0xff, 0x01, 0xea, 0xff, 0xff,
  0x96, 0xf2, 0xff, 0xff, 0x24, 0x0e, 0x00, 0x00, 0x61, 0xee, 0xff, 0xff,
  0x59, 0xf4, 0xff, 0xff, 0x71, 0x02, 0x00, 0x00, 0x7a, 0xe9, 0xff, 0xff,
  0x42, 0xfa, 0xff, 0xff, 0x5a, 0x1b, 0x00, 0x00, 0x56, 0x0d, 0x00, 0x00,
  0xd3, 0xfa, 0xff, 0xff, 0x16, 0x0f, 0x00, 0x00, 0xf0, 0xf1, 0xff, 0xff,
  0xa9, 0x1b, 0x00, 0x00, 0x51, 0xf3, 0xff, 0xff, 0x00, 0x00, 0x00, 0x00,
  0x9e, 0x19, 0x00, 0x00, 0xa8, 0xeb, 0xff, 0xff, 0x2e, 0xd7, 0xff, 0xff,
  0x04, 0x00, 0x00, 0x00, 0x00, 0x28, 0x00, 0x00, 0x1a, 0xd2, 0xc2, 0x1a,
  0xb4, 0xd5, 0x05, 0xb9, 0x47, 0xea, 0xeb, 0xc9, 0xdd, 0x0c, 0xcd, 0xc8,
  0x04, 0xdd, 0x0f, 0x0a, 0x04, 0xcc, 0xd8, 0x10, 0xda, 0xc6, 0xd5, 0xbf,
  0xd8, 0x08, 0xd7, 0xe9, 0xe8, 0xef, 0xf3, 0xd4, 0x2a, 0xb8, 0xf1, 0xf4,
  0x1b, 0x41, 0xde, 0x03, 0x1c, 0x0d, 0x28, 0xc0, 0x23, 0xf0, 0xf2, 0xe7,
  0xb8, 0x25, 0x00, 0xeb, 0x15, 0xd0, 0xbe, 0xfd, 0xc5, 0x37, 0xd7, 0xb5,
  0xb3, 0xd6, 0xcf, 0x2f, 0xe1, 0xd0, 0xd3, 0x10, 0x07, 0xb5, 0xcd, 0xe4,
  0xd2, 0xc0, 0xc8, 0xd6, 0xec, 0xe5, 0xbd, 0xd8, 0xef, 0xe5, 0xed, 0xff,
  0x0e, 0xbe, 0x18, 0xb5, 0xf6, 0xf6, 0xd1, 0xea, 0x2b, 0x14, 0xfa, 0x1a,
  0xf0, 0xa9, 0xf0, 0x04, 0xb4, 0xf1, 0x24, 0x02, 0x34, 0xe8, 0xf0, 0x20,
  0xc8, 0xdd, 0x01, 0x1e, 0xec, 0x1e, 0x1c, 0xc8, 0xf3, 0x0b, 0x1d, 0xc9,
  0xeb, 0x31, 0xf6, 0xe2, 0xf1, 0x0d, 0x01, 0xde, 0xf0, 0xf1, 0x3e, 0x1b,
  0x2b, 0xf8, 0x2e, 0xf6, 0x08, 0x0f, 0xea, 0x29, 0xc1, 0x39, 0x23, 0xd0,
  0x18, 0xde, 0xb9, 0xf4, 0x10, 0x05, 0xdb, 0xc8, 0xdc, 0x2f, 0xff, 0x29,
  0xf5, 0xe4, 0x1d, 0xc5, 0x5a, 0xe0, 0x07, 0xf3, 0xfa, 0x0e, 0x1a, 0x3b,
  0xea, 0x2c, 0x34, 0xf1, 0xd4, 0x30, 0xf9, 0x16, 0x1f, 0x43, 0x2b, 0xe7,
  0xf5, 0x33, 0x21, 0x2d, 0x2d, 0xd3, 0xc4, 0xea, 0x4e, 0x49, 0x59, 0x29,
  0xe1, 0xf2, 0x14, 0xf6, 0xee, 0x01, 0x35, 0x52, 0xd1, 0x11, 0x26, 0x06,
  0x1f, 0xe8, 0x40, 0x41, 0x30, 0xfa, 0x23, 0x1e, 0x11, 0xf7, 0x00, 0xe2,
  0x04, 0xe0, 0x1f, 0xe1, 0xfb, 0x2e, 0x0c, 0xdf, 0xe7, 0x52, 0x1d, 0x09,
  0x04, 0x1b, 0xe3, 0xef, 0xf1, 0xec, 0x40, 0x44, 0x54, 0x32, 0xd9, 0xbf,
  0xe2, 0x3e, 0xc7, 0xca, 0x38, 0x2a, 0x10, 0x04, 0xd6, 0x38, 0x28, 0x1d,
  0x14, 0xda, 0x12, 0xc6, 0x04, 0x02, 0x16, 0xb9, 0x08, 0xfd, 0xe5, 0xd7,
  0x0f, 0xd0, 0xda, 0xfc, 0x12, 0xc9, 0xfd, 0x22, 0xc8, 0x11, 0xb7, 0xce,
  0x0e, 0xfc, 0xd8, 0x17, 0x01, 0xda, 0xdc, 0xea, 0x01, 0xf1, 0xb9, 0xcd,
  0x25, 0x14, 0x08, 0xd6, 0xe7, 0xf7, 0xf4, 0xd7, 0x35, 0xf1, 0xc3, 0xc9,
  0x37, 0xec, 0x06, 0xf7, 0x1b, 0xf2, 0xfd, 0xa9, 0xe1, 0x20, 0xbd, 0x31,
  0x0b, 0xf8, 0xe6, 0x17, 0xd8, 0x0c, 0xe3, 0x2b, 0xb7, 0xb9, 0x21, 0xf4,
  0xaa, 0x12, 0xec, 0xd1, 0x38, 0x25, 0xf6, 0xca, 0xb0, 0xf1, 0xc4, 0x01,
  0xd4, 0xee, 0xcb, 0xb9, 0xf2, 0xf0, 0x0f, 0xd4, 0x11, 0x12, 0xf3, 0x1a,
  0xd6, 0x22, 0x0a, 0x2b, 0xff, 0xac, 0x10, 0xf8, 0x00, 0x0f, 0x30, 0xfd,
  0x0e, 0x2f, 0x0c, 0x09, 0xa0, 0xcc, 0xaa, 0xdb, 0x0a, 0xf4, 0xce, 0xed,
  0x00, 0xfc, 0x2a, 0xce, 0x09, 0xed, 0xcf, 0x02, 0x07, 0xf6, 0xcb, 0x1e,
  0xaa, 0x06, 0xee, 0xee, 0xb5, 0xd9, 0x49, 0x44, 0x12, 0x2c, 0x1e, 0xd8,
  0xcc, 0x42, 0x04, 0xfd, 0x3e, 0x23, 0xdc, 0x9c, 0xda, 0xcc, 0xf7, 0xd9,
  0x3f, 0x2e, 0x07, 0xd9, 0xe3, 0x00, 0x02, 0xd0, 0xf9, 0xfd, 0xf9, 0x22,
  0xfd, 0x18, 0x0f, 0x5a, 0x39, 0xf8, 0xf4, 0x2c, 0xa6, 0x36, 0x07, 0xbe,
  0x2d, 0x26, 0xae, 0xe0, 0xf6, 0xa0, 0xf3, 0xba, 0x21, 0xd1, 0x1d, 0x30,
  0xdb, 0xe5, 0x31, 0x09, 0x4e, 0x0e, 0x4c, 0xe0, 0x17, 0x0e, 0x08, 0x12,
  0x1e, 0x1e, 0x07, 0xf6, 0x5a, 0xe7, 0x51, 0x0c, 0xee, 0xec, 0x49, 0x1d,
  0x11, 0x54, 0x02, 0xf9, 0x37, 0xd6, 0xe8, 0xe6, 0x19, 0x41, 0xfd, 0x39,
  0xd4, 0x42, 0x27, 0x22, 0xe3, 0x43, 0xbd, 0x10, 0x0a, 0x2c, 0xf7, 0xdf,
  0x3e, 0x04, 0x23, 0x31, 0xd5, 0x1c, 0x09, 0xe9, 0x01, 0xec, 0x36, 0x13,
  0x2f, 0xd7, 0xf7, 0xc6, 0xc3, 0xa8, 0xf4, 0xd4, 0xc8, 0xf4, 0xfa, 0x07,
  0xdb, 0xd4, 0xd9, 0x16, 0xc4, 0xd1, 0xd9, 0xc4, 0x24, 0x05, 0xce, 0x2a,
  0x1a, 0x08, 0x2d, 0x48, 0xbc, 0x13, 0xf1, 0x68, 0xb1, 0x2e, 0xd9, 0xf4,
  0x18, 0x0d, 0xf2, 0x28, 0xe8, 0x16, 0xcc, 0x19, 0x17, 0x0d, 0x0d, 0x0b,
  0x0f, 0xd5, 0xbd, 0x1a, 0x29, 0x0c, 0x0b, 0x0f, 0x15, 0x1a, 0xb1, 0x92,
  0xc4, 0xdf, 0xa9, 0x08, 0x01, 0x1b, 0x0f, 0x09, 0xff, 0xf6, 0xfa, 0x01,
  0xd9, 0xaa, 0xdc, 0x27, 0xe8, 0xc6, 0x4b, 0x2b, 0xc6, 0x27, 0xfa, 0xd0,
  0x98, 0x2a, 0xef, 0x08, 0xd9, 0x09, 0x02, 0xec, 0x21, 0xb3, 0xf0, 0x02,
  0x25, 0x2b, 0xbb, 0xd9, 0x0f, 0x16, 0xcd, 0xbf, 0x2e, 0x01, 0xf2, 0x09,
  0xa4, 0x0c, 0xed, 0x15, 0x29, 0xff, 0xf4, 0x0a, 0x88, 0xdc, 0xf2, 0x0a,
  0x4b, 0x49, 0xad, 0xd7, 0xf8, 0x96, 0xf7, 0xfb, 0xff, 0x13, 0xf5, 0xe1,
  0x29, 0xf0, 0x33, 0xcc, 0xd2, 0xe1, 0x24, 0x44, 0xc8, 0x1d, 0x50, 0x34,
  0x0a, 0x0d, 0x04, 0x04, 0xf3, 0x3b, 0x28, 0x05, 0x43, 0xec, 0xed, 0x01,
  0x58, 0xb4, 0xf8, 0xe7, 0x00, 0xd6, 0xf3, 0x31, 0xed, 0xfb, 0xe2, 0x1a,
  0x07, 0xad, 0x0e, 0x3a, 0x23, 0x28, 0x32, 0x15, 0xe5, 0xdf, 0x3d, 0x31,
  0xeb, 0x1c, 0xfd, 0xdb, 0x03, 0x25, 0xd8, 0xfb, 0x4c, 0x29, 0x32, 0x0b,
  0xfd, 0x3a, 0xe3, 0xf9, 0xfd, 0x02, 0xed, 0x37, 0x41, 0x55, 0x3c, 0xf7,
  0x47, 0x44, 0xfa, 0x20, 0xca, 0x25, 0x09, 0xe8, 0x14, 0x2f, 0x18, 0xf4,
  0x21, 0x0e, 0x05, 0x17, 0xed, 0x47, 0x1f, 0x55, 0x1f, 0x06, 0x1f, 0x03,
  0xdc, 0xf5, 0x10, 0xea, 0x10, 0xe7, 0x03, 0x44, 0x33, 0x22, 0xe8, 0x13,
  0xc5, 0x32, 0x12, 0xd1, 0x05, 0x02, 0xdc, 0xd2, 0xdf, 0x20, 0x36, 0x44,
  0x34, 0x1c, 0xdb, 0x07, 0xff, 0x28, 0xe6, 0x34, 0x0f, 0xd6, 0xce, 0x3f,
  0xd5, 0x3b, 0xb6, 0xf2, 0x27, 0xfd, 0xe4, 0xfa, 0x1d, 0xad, 0x11, 0x00,
  0x32, 0xb4, 0xe5, 0xe4, 0x02, 0xa9, 0xfb, 0xec, 0x11, 0x2e, 0x06, 0x17,
  0xef, 0xc9, 0xf7, 0xfe, 0x03, 0xb9, 0xd7, 0x19, 0xb5, 0x3c, 0xb5, 0xee,
  0xed, 0xdf, 0x0c, 0xe8, 0xf9, 0x1b, 0xc0, 0x03, 0x9e, 0xfc, 0xf5, 0x14,
  0xe3, 0xee, 0xc3, 0xbc, 0xdb, 0x8d, 0xe0, 0x06, 0xf5, 0xe9, 0xce, 0xfc,
  0x32, 0xe3, 0x03, 0xfa, 0xa4, 0xbc, 0x30, 0xf6, 0xda, 0xcd, 0x2a, 0xd2,
  0x24, 0xf8, 0x58, 0x2c, 0xc6, 0x17, 0xfc, 0x1e, 0x35, 0xe6, 0xb0, 0xfb,
  0xd4, 0xbe, 0xfc, 0xf9, 0xe4, 0x31, 0xe2, 0x02, 0x3d, 0x38, 0x35, 0xe7,
  0xe7, 0xae, 0x35, 0x4c, 0xc4, 0x0b, 0x24, 0xfc, 0x07, 0x36, 0x2f, 0x03,
  0xb3, 0xe5, 0x1c, 0xea, 0x57, 0xfc, 0xd2, 0x93, 0x50, 0xd1, 0x43, 0xb1,
  0xf2, 0x32, 0x18, 0x40, 0x56, 0x24, 0xf0, 0xc2, 0xce, 0x00, 0x02, 0x01,
  0xaa, 0xf6, 0x1e, 0x4d, 0x35, 0x1c, 0x51, 0x41, 0xb9, 0x14, 0xed, 0xbe,
  0x4d, 0x2c, 0x01, 0xd1, 0x56, 0x02, 0x34, 0xc3, 0x4f, 0xde, 0xc8, 0xd4,
  0x1c, 0x4d, 0x46, 0x14, 0x21, 0x44, 0x12, 0xed, 0x41, 0x2f, 0x40, 0xe2,
  0x05, 0x22, 0x09, 0xed, 0xf5, 0xe2, 0xdb, 0xc7, 0x17, 0xf7, 0x39, 0x10,
  0xe7, 0x66, 0x16, 0x2e, 0xf4, 0xd8, 0xe7, 0x14, 0x33, 0xfa, 0x46, 0x07,
  0xfd, 0x46, 0xe4, 0x17, 0x20, 0xda, 0xde, 0xe2, 0xe5, 0x1f, 0x19, 0x01,
  0x44, 0x09, 0x3d, 0x0e, 0x2d, 0x2c, 0x23, 0x05, 0xe2, 0x6a, 0x01, 0x2d,
  0x1a, 0xe5, 0x0a, 0xfb, 0x40, 0xda, 0xce, 0x2a, 0xd5, 0xe3, 0x0a, 0x15,
  0x4e, 0x11, 0x1d, 0x26, 0xd7, 0xe3, 0x09, 0x26, 0x06, 0xe7, 0x0a, 0xee,
  0x38, 0x11, 0xd2, 0x20, 0xc7, 0xdf, 0xe2, 0x2a, 0x0c, 0x36, 0xd7, 0xf6,
  0x04, 0xc6, 0xca, 0x10, 0xf3, 0x24, 0xd9, 0xe8, 0xb0, 0xf5, 0xf8, 0x11,
  0x1c, 0xd1, 0xb2, 0xd6, 0xfb, 0xdb, 0xc7, 0xc7, 0xfb, 0x0e, 0xdc, 0xb7,
  0xce, 0x90, 0xd2, 0xe4, 0x0a, 0x2e, 0x18, 0xc3, 0xc9, 0xe4, 0xb8, 0xf6,
  0x0c, 0xdd, 0xd0, 0xb9, 0x9c, 0xd4, 0xcc, 0xf8, 0xc7, 0x18, 0xf5, 0xbb,
  0xc0, 0x1c, 0xda, 0x09, 0x07, 0xf1, 0xb7, 0xb4, 0xdd, 0x9f, 0xe1, 0xcd,
  0xc9, 0xcd, 0x23, 0x27, 0xdc, 0x15, 0xa9, 0xc8, 0xe3, 0x04, 0x43, 0x1e,
  0x9d, 0xfa, 0x18, 0x4a, 0xf9, 0x42, 0x2a, 0x26, 0xf1, 0xe6, 0xa2, 0x17,
  0xe4, 0x1d, 0x9d, 0xd6, 0x12, 0xc5, 0x23, 0xa1, 0x52, 0x0c, 0xe1, 0x49,
  0x1d, 0x2c, 0x06, 0x1d, 0x22, 0x04, 0x52, 0x49, 0xe1, 0xb7, 0x35, 0x18,
  0x2e, 0x4f, 0x0a, 0x42, 0xb6, 0x09, 0xec, 0x14, 0x18, 0x4a, 0xb6, 0xc2,
  0x20, 0xd5, 0x3a, 0x8b, 0x50, 0x12, 0xf6, 0x2f, 0xff, 0x00, 0x6a, 0xee,
  0xba, 0xb4, 0x58, 0x21, 0xcd, 0x23, 0xfc, 0x2d, 0xe1, 0x46, 0x11, 0x23,
  0xf8, 0x4d, 0x20, 0xe2, 0x12, 0x43, 0x01, 0x99, 0x5f, 0x8f, 0x0c, 0x89,
  0x5f, 0xea, 0xf2, 0xe3, 0x18, 0x3c, 0x36, 0x1f, 0xa4, 0x45, 0xf2, 0x28,
  0x51, 0xe2, 0x18, 0xfd, 0x1f, 0xf0, 0x41, 0xe6, 0xc6, 0x30, 0xec, 0x2c,
  0x04, 0x1f, 0xf5, 0x08, 0x3a, 0x25, 0x39, 0x59, 0x17, 0xcd, 0xbf, 0x19,
  0x37, 0xd6, 0x2e, 0x1c, 0x06, 0x2a, 0xef, 0x3f, 0xef, 0xde, 0x1b, 0x03,
  0xe6, 0x1d, 0xe1, 0xfb, 0x2e, 0xde, 0xe1, 0xc6, 0xf4, 0xfd, 0xfa, 0x20,
  0xca, 0x0e, 0xfc, 0x2d, 0x26, 0xcc, 0xf1, 0x1b, 0x2e, 0x04, 0xe9, 0x2a,
  0xfb, 0x2d, 0xc5, 0x15, 0xfb, 0xae, 0x08, 0x08, 0xd0, 0xdf, 0xc1, 0xd9,
  0x1b, 0xd2, 0xf4, 0xee, 0x2c, 0xc9, 0xe4, 0x07, 0xff, 0x12, 0x1d, 0x03,
  0x26, 0xea, 0x09, 0x06, 0xcb, 0xe0, 0xa6, 0x4b, 0x04, 0xca, 0xc7, 0xc7,
  0xb0, 0xb0, 0x12, 0xa9, 0x15, 0xe0, 0xfc, 0x1d, 0xb4, 0x14, 0x00, 0xd5,
  0xcd, 0xb0, 0x8b, 0xd3, 0xc4, 0x81, 0x1c, 0x04, 0xed, 0xf8, 0xf5, 0xf7,
  0xc7, 0xd1, 0xd6, 0x20, 0xe4, 0xb3, 0xd9, 0x02, 0xa7, 0xe7, 0x0e, 0xd4,
  0xd9, 0x1b, 0xda, 0x1f, 0xb1, 0xe9, 0xf1, 0x0e, 0xd6, 0xd6, 0xa3, 0x96,
  0xc7, 0xe3, 0xe3, 0xff, 0xe1, 0x3a, 0x27, 0x0a, 0x07, 0xff, 0x13, 0xf6,
  0xef, 0xed, 0x01, 0x1a, 0xe0, 0xe1, 0xfa, 0x0b, 0xe3, 0x05, 0x05, 0x14,
  0x8c, 0xe8, 0xd7, 0xc4, 0x3d, 0xc7, 0xf4, 0xdc, 0x33, 0xda, 0x0d, 0xd2,
  0xfb, 0x1f, 0x31, 0x5d, 0x50, 0x14, 0x33, 0x07, 0xd0, 0xe2, 0x38, 0xf8,
  0xc6, 0xae, 0x29, 0x5b, 0xe5, 0x49, 0x1d, 0x2d, 0xd5, 0x46, 0xe9, 0xce,
  0x08, 0xe9, 0xa6, 0xab, 0x69, 0xec, 0x18, 0xc1, 0x31, 0x2e, 0xaf, 0x13,
  0x66, 0x69, 0xff, 0xb2, 0xde, 0x00, 0x4e, 0x4f, 0xf0, 0xfc, 0xf2, 0x2a,
  0x0d, 0x57, 0xf8, 0x5d, 0xee, 0x3a, 0x04, 0xf5, 0x56, 0x4f, 0xf8, 0xe6,
  0x28, 0xeb, 0x52, 0x88, 0x4e, 0xf1, 0xcb, 0x30, 0x30, 0x21, 0x27, 0x13,
  0xaf, 0xc3, 0xd9, 0x34, 0x11, 0x46, 0xf9, 0x32, 0x16, 0xf8, 0x21, 0x2e,
  0xf1, 0x18, 0x44, 0xf1, 0x09, 0xef, 0x3f, 0x19, 0x01, 0x37, 0x4a, 0x03,
  0x28, 0xf5, 0xab, 0xd2, 0x1f, 0xc8, 0x2b, 0x09, 0x26, 0x30, 0xe2, 0x2d,
  0x3d, 0x1f, 0xef, 0x21, 0xf5, 0x08, 0x2a, 0x09, 0xed, 0x1e, 0x03, 0xc5,
  0xd0, 0x08, 0x20, 0x19, 0xf7, 0x00, 0x0b, 0x5b, 0x00, 0x22, 0xaf, 0xc3,
  0xe9, 0xee, 0xfb, 0x2d, 0xfe, 0xe1, 0xb6, 0xfd, 0xf6, 0xd7, 0x0f, 0x05,
  0x24, 0xd8, 0xd3, 0x18, 0x08, 0xbd, 0x38, 0x0b, 0x1d, 0xc1, 0x0d, 0xd4,
  0xcf, 0xc6, 0xe3, 0x5e, 0xf9, 0xdf, 0xe0, 0xc9, 0x9c, 0x07, 0xfa, 0x11,
  0x12, 0x01, 0xdf, 0xd4, 0xfc, 0xf1, 0x13, 0x0c, 0x3c, 0xba, 0x0a, 0xd8,
  0xcb, 0xc6, 0xc9, 0x2a, 0x22, 0x01, 0xad, 0xdd, 0x09, 0xd9, 0xe8, 0x48,
  0xcd, 0xd2, 0x50, 0x04, 0x0f, 0xd8, 0xac, 0x1a, 0xfe, 0xb1, 0x0a, 0xd3,
  0x0d, 0xc1, 0x1d, 0x24, 0x2b, 0xf5, 0x2c, 0x08, 0xf4, 0xea, 0xc1, 0xf8,
  0xd1, 0x19, 0xc3, 0xc6, 0xcd, 0xf4, 0xdd, 0xe8, 0xe2, 0xee, 0x15, 0x38,
  0x12, 0xec, 0xdd, 0xed, 0xc4, 0xee, 0x37, 0x03, 0xde, 0xa1, 0x39, 0x35,
  0x24, 0x25, 0x62, 0xeb, 0xe9, 0xce, 0xfc, 0x14, 0x0c, 0xde, 0xac, 0xb8,
  0x37, 0xa7, 0xee, 0xe8, 0x0e, 0xf3, 0x0c, 0x05, 0x34, 0x32, 0x4c, 0xdd,
  0xfa, 0xc0, 0x2d, 0x10, 0xf9, 0xf6, 0x6d, 0x26, 0xe6, 0x6e, 0x75, 0x02,
  0xfa, 0x4e, 0x1f, 0x1a, 0x0d, 0x0a, 0xc9, 0xa2, 0x68, 0xf6, 0x53, 0x95,
  0x51, 0x0f, 0xe8, 0x4a, 0x5d, 0x5d, 0x0d, 0xa4, 0xa7, 0xf8, 0x09, 0x1d,
  0x03, 0x3c, 0x43, 0x49, 0xc7, 0x1d, 0x23, 0xfa, 0xfb, 0x49, 0x53, 0xfe,
  0x2a, 0x36, 0x49, 0x0c, 0x18, 0xf6, 0x0d, 0xb3, 0x5e, 0x15, 0xe0, 0xfb,
  0xed, 0xf7, 0x2c, 0x26, 0xa9, 0xfd, 0x32, 0xed, 0x0a, 0x4d, 0x1a, 0x00,
  0xe9, 0xd2, 0x29, 0x12, 0xc0, 0x1f, 0x0f, 0x30, 0xe1, 0x2c, 0x29, 0xfc,
  0xf4, 0x14, 0x0a, 0x6e, 0xe3, 0x15, 0xe2, 0xc5, 0xbd, 0xbd, 0xb8, 0x07,
  0x0a, 0x14, 0xbb, 0xf4, 0x3c, 0x05, 0xc7, 0xda, 0xfe, 0xb0, 0xe6, 0xea,
  0xee, 0xeb, 0x26, 0x06, 0xd8, 0xe7, 0x0d, 0xfc, 0xdb, 0x2c, 0xe3, 0x74,
  0xa8, 0xf1, 0xed, 0xdd, 0xe2, 0xfe, 0xb9, 0xd6, 0x16, 0xfc, 0xdb, 0xe4,
  0x13, 0xf8, 0x0b, 0xe0, 0xdc, 0xfa, 0xc7, 0xfb, 0x35, 0xe4, 0x14, 0xee,
  0x01, 0xb5, 0xb0, 0xef, 0xc1, 0xf5, 0xaa, 0x51, 0xcd, 0x22, 0xef, 0xa2,
  0xbf, 0xdd, 0x94, 0x08, 0xcd, 0xdb, 0xb9, 0xc6, 0x12, 0xf2, 0xe5, 0xbe,
  0xb8, 0x1a, 0xc8, 0xb1, 0xf6, 0xec, 0xcb, 0xf1, 0xce, 0xf8, 0x88, 0xdb,
  0xa3, 0xcf, 0xa7, 0x0a, 0xea, 0x3a, 0x44, 0xde, 0xdf, 0x1e, 0xbb, 0xf9,
  0xf8, 0xf9, 0xe9, 0xd0, 0x2c, 0xf2, 0xfb, 0xc8, 0x1f, 0x18, 0x3b, 0x0e,
  0xdf, 0xfa, 0xab, 0x0c, 0xdc, 0xdf, 0x8a, 0x08, 0x18, 0xa3, 0x0d, 0xf4,
  0xc6, 0xcd, 0xa5, 0x1a, 0x01, 0xe8, 0xf6, 0x09, 0xab, 0xeb, 0x15, 0xe7,
  0x51, 0x00, 0x3b, 0xec, 0x1f, 0x0d, 0x5e, 0x32, 0xa0, 0x09, 0xe5, 0xf0,
  0x06, 0xf7, 0xc2, 0xf9, 0xe8, 0xff, 0x32, 0xdb, 0xd7, 0x09, 0x3a, 0x18,
  0x06, 0x1d, 0x22, 0x9a, 0x30, 0xa2, 0x55, 0xf5, 0x4b, 0xdb, 0x42, 0xfe,
  0x30, 0x24, 0x19, 0x03, 0x10, 0x3d, 0xda, 0x05, 0xfb, 0x00, 0xa0, 0xe2,
  0x21, 0xf2, 0x07, 0xcb, 0x3f, 0xf9, 0x4a, 0x5e, 0x6c, 0x5e, 0x50, 0xd3,
  0xb6, 0xfd, 0x2e, 0x09, 0x5b, 0x3f, 0x03, 0x22, 0x12, 0x2b, 0x13, 0x2e,
  0x32, 0x31, 0x1f, 0x33, 0x4f, 0x26, 0x18, 0x06, 0x2b, 0xad, 0x4d, 0xd0,
  0x76, 0xcf, 0xeb, 0xf7, 0xf6, 0x09, 0x37, 0x24, 0x8c, 0x37, 0xc7, 0xef,
  0xc8, 0x04, 0xc0, 0x2a, 0xfa, 0xdb, 0xfa, 0xc4, 0x10, 0x48, 0x32, 0xe0,
  0x0c, 0x1c, 0x59, 0xfc, 0x4b, 0x51, 0x3d, 0xde, 0xf7, 0xd6, 0xf1, 0xbd,
  0xe5, 0xc4, 0xbe, 0x10, 0xbf, 0xf9, 0xe2, 0xa2, 0xf2, 0xfe, 0xf7, 0xd2,
  0xe9, 0xcf, 0xc3, 0x03, 0x23, 0xee, 0xe0, 0x1f, 0x11, 0xce, 0x2e, 0xf3,
  0xfd, 0x3b, 0xd8, 0xf4, 0xd5, 0x0d, 0xef, 0x00, 0x13, 0xae, 0xcf, 0xe4,
  0xe6, 0x1d, 0xd3, 0xd9, 0xe8, 0xd9, 0x01, 0xe7, 0x2e, 0x01, 0xb0, 0x04,
  0x9b, 0xc0, 0xe1, 0x01, 0xee, 0xb8, 0xdc, 0xae, 0x00, 0xce, 0xb4, 0x5b,
  0xf0, 0xc7, 0x07, 0x0f, 0xf3, 0x40, 0xe3, 0xf0, 0xe6, 0x70, 0xe4, 0x18,
  0xed, 0x2e, 0xcb, 0xea, 0x0f, 0x2a, 0xc4, 0xdd, 0xf1, 0x1c, 0xf2, 0x01,
  0xf8, 0xb7, 0xfc, 0xe6, 0xe5, 0xf1, 0x0e, 0xdd, 0xcc, 0xfe, 0xe8, 0xd0,
  0xd0, 0xf8, 0xd3, 0x25, 0xec, 0x0d, 0x0f, 0x32, 0xf7, 0xc6, 0x60, 0xc4,
  0xdb, 0x3f, 0xf5, 0xdb, 0xb4, 0x22, 0xa3, 0x23, 0x10, 0xf9, 0xbf, 0xd1,
  0x0d, 0xfe, 0xfa, 0x22, 0xf4, 0xee, 0x13, 0x03, 0x20, 0xe5, 0xe6, 0x12,
  0xc1, 0x2a, 0x13, 0x3b, 0xfe, 0x39, 0xe6, 0x1c, 0xd7, 0x1c, 0xf7, 0x47,
  0xd1, 0xe7, 0xea, 0xcc, 0x3f, 0x08, 0x0b, 0x00, 0x38, 0x19, 0x17, 0x03,
  0x51, 0x04, 0xc7, 0xf9, 0x04, 0xd4, 0x03, 0xdb, 0x09, 0x3d, 0xd7, 0x2c,
  0xc1, 0x12, 0xfd, 0x37, 0xe3, 0xeb, 0x4a, 0x10, 0xe2, 0x2b, 0xe2, 0x28,
  0xf4, 0xf8, 0x35, 0x0b, 0xf4, 0x2c, 0x09, 0xe1, 0x39, 0xda, 0xb0, 0x3a,
  0x15, 0xf1, 0xfa, 0xce, 0xd6, 0x31, 0xd7, 0x20, 0xed, 0xe0, 0x20, 0x32,
  0xcd, 0x16, 0x34, 0xd0, 0xcc, 0xc7, 0xe9, 0xe8, 0x32, 0x37, 0x5c, 0xff,
  0xd8, 0xbb, 0xfc, 0xfd, 0xdb, 0x09, 0x05, 0xe9, 0xe8, 0xda, 0x0c, 0xd3,
  0xcb, 0xde, 0xa7, 0xca, 0xdd, 0xaf, 0xcc, 0xe9, 0x1c, 0xd9, 0x05, 0xaf,
  0x94, 0xe6, 0xa8, 0x15, 0xe5, 0x10, 0x3f, 0x15, 0x01, 0xb5, 0xde, 0xe0,
  0xe3, 0x23, 0x09, 0xfb, 0xe8, 0x1c, 0xc5, 0x0e, 0x16, 0x3a, 0xd2, 0x06,
  0xb2, 0xd3, 0x1c, 0xcc, 0xd6, 0x13, 0x3a, 0xc8, 0x11, 0xff, 0xed, 0xde,
  0xfb, 0xf6, 0xe0, 0x1f, 0xc1, 0xee, 0xe6, 0x01, 0x29, 0x27, 0x24, 0x2c,
  0xf4, 0xe8, 0x18, 0xec, 0xda, 0xbc, 0x15, 0x1a, 0x0f, 0xbe, 0x0a, 0xdc,
  0x27, 0xce, 0xfe, 0x1d, 0x99, 0xb6, 0x2b, 0xde, 0x26, 0xe4, 0xf4, 0x14,
  0x14, 0xfb, 0xf3, 0xe2, 0xf0, 0x38, 0xdb, 0x40, 0x06, 0x02, 0x1e, 0xfc,
  0x4f, 0xcc, 0xdd, 0xef, 0x3a, 0x04, 0xf3, 0xf7, 0xb2, 0xe1, 0x06, 0x2f,
  0x16, 0x03, 0x3a, 0xcd, 0x30, 0x0c, 0x3f, 0x40, 0x11, 0x5a, 0xf2, 0x9c,
  0x2f, 0xfe, 0x1d, 0x3e, 0x10, 0xfc, 0x40, 0xee, 0xe1, 0xb9, 0xe9, 0xf7,
  0x3a, 0x0a, 0x0e, 0xc6, 0x36, 0x38, 0x2c, 0xe8, 0xe5, 0x02, 0x45, 0xd0,
  0x49, 0x07, 0x39, 0x09, 0xe2, 0x41, 0xfb, 0x35, 0x0a, 0x20, 0x08, 0x52,
  0x13, 0x2d, 0xf4, 0xdd, 0x18, 0x10, 0xd7, 0x13, 0x58, 0xd9, 0x2b, 0xf5,
  0x27, 0xff, 0x28, 0xe5, 0x28, 0xe4, 0x04, 0x2e, 0x29, 0xff, 0xc3, 0x03,
  0x19, 0xc2, 0xef, 0xe0, 0xfa, 0x29, 0x04, 0xdf, 0x28, 0x33, 0x16, 0xe4,
  0xea, 0xd0, 0x08, 0xd6, 0xfd, 0xe8, 0xd5, 0x2b, 0x2f, 0xe9, 0x39, 0xf3,
  0xd3, 0xdc, 0xec, 0x33, 0xe2, 0xcc, 0xf2, 0xe7, 0x15, 0xc5, 0xff, 0x83,
  0x1e, 0xfa, 0xd7, 0x1b, 0x31, 0xde, 0x13, 0xc6, 0xe6, 0xcb, 0xf2, 0x01,
  0xd4, 0xec, 0x20, 0x2a, 0x1b, 0x0c, 0x22, 0x42, 0xe4, 0xf5, 0x17, 0x23,
  0x03, 0xee, 0xe6, 0xe6, 0x1d, 0x00, 0x30, 0x98, 0xfd, 0xcf, 0x09, 0xf3,
  0x05, 0xe9, 0x20, 0xfa, 0xee, 0xee, 0xe8, 0x19, 0xd1, 0x39, 0xdf, 0x0a,
  0x01, 0xbc, 0xd3, 0x0c, 0xc4, 0xe6, 0xde, 0x1a, 0x23, 0x04, 0x16, 0x08,
  0x1e, 0x38, 0xcb, 0xec, 0x08, 0xed, 0xe9, 0xe6, 0xda, 0xc7, 0x06, 0xda,
  0xf2, 0xdf, 0x08, 0x1a, 0x2d, 0xec, 0x40, 0xd5, 0x05, 0x19, 0x0a, 0xc4,
  0x3d, 0x12, 0xe3, 0x31, 0x2c, 0xf5, 0x40, 0x04, 0xe0, 0x04, 0xea, 0x33,
  0x27, 0x0c, 0xd4, 0xe0, 0xe1, 0xfa, 0x24, 0xdd, 0xe5, 0xbe, 0x10, 0xf6,
  0x04, 0xf2, 0x14, 0xda, 0xc6, 0xf5, 0xf4, 0x2b, 0xd5, 0xdf, 0xf1, 0x03,
  0x3d, 0xd9, 0xcb, 0xdb, 0x03, 0x1a, 0x09, 0xd2, 0x35, 0xd6, 0xf4, 0xf9,
  0xed, 0xe7, 0x1c, 0x2d, 0x3a, 0x9f, 0xfa, 0x3d, 0x31, 0xe3, 0x01, 0x00,
  0x37, 0xf6, 0xe4, 0xd5, 0x0d, 0xe5, 0xe7, 0xd7, 0x21, 0xf9, 0xc4, 0x18,
  0xf4, 0xf4, 0x35, 0xcc, 0x46, 0xc9, 0xe0, 0xfc, 0x01, 0x28, 0x14, 0xd7,
  0x5a, 0xe8, 0x29, 0xf1, 0x1e, 0x54, 0xea, 0x00, 0xc8, 0xe2, 0xd4, 0x01,
  0xf5, 0x1d, 0x45, 0xde, 0xd2, 0x43, 0x1e, 0x3a, 0xea, 0x25, 0x0f, 0x2a,
  0xde, 0x16, 0xec, 0x20, 0x2f, 0x0f, 0xd1, 0x2d, 0xa6, 0xfd, 0xf8, 0x2b,
  0x5f, 0xc0, 0x21, 0x09, 0x24, 0xd1, 0x41, 0xdd, 0x29, 0x1e, 0x2f, 0x10,
  0xd2, 0xc1, 0xeb, 0x99, 0x19, 0x04, 0x01, 0x32, 0xd4, 0xf7, 0xd6, 0x28,
  0x3b, 0xc6, 0x1f, 0xe2, 0xfd, 0xa0, 0x30, 0xe7, 0xa4, 0xe4, 0xfd, 0x48,
  0x23, 0x03, 0x16, 0x2f, 0xbd, 0xfe, 0xc6, 0x0b, 0xf1, 0xe9, 0x97, 0x8d,
  0xff, 0xd1, 0x36, 0x89, 0x5a, 0xe2, 0xb3, 0x41, 0xe8, 0x3b, 0xde, 0xd0,
  0xaa, 0x0f, 0x3c, 0x49, 0xbd, 0xd5, 0x48, 0xf1, 0xe6, 0xe9, 0xf2, 0x5e,
  0x97, 0xee, 0x1c, 0x17, 0x20, 0xe8, 0x36, 0xa0, 0x11, 0x05, 0xfa, 0xd8,
  0x2c, 0x03, 0xac, 0xd0, 0x01, 0x1e, 0xf4, 0xd6, 0xef, 0x14, 0xc0, 0xd0,
  0x41, 0x29, 0x13, 0x28, 0xf5, 0x0b, 0xf2, 0x16, 0xf5, 0x2f, 0xe4, 0x06,
  0xf0, 0x0c, 0xf6, 0x19, 0x23, 0xc2, 0x11, 0xfa, 0x25, 0x11, 0xfe, 0xc8,
  0x0b, 0xf7, 0xdd, 0xff, 0x15, 0xee, 0xd5, 0xcf, 0x09, 0xf6, 0xde, 0x10,
  0x0d, 0x23, 0xd0, 0x1f, 0xfa, 0xe2, 0xda, 0xe1, 0xde, 0xfc, 0xd5, 0x92,
  0x29, 0xf5, 0xeb, 0xc9, 0xc4, 0x33, 0xfd, 0x3b, 0x2d, 0x04, 0xda, 0xdd,
  0xe2, 0x10, 0xf3, 0xe3, 0xc9, 0xc4, 0x2f, 0xf1, 0x1a, 0x3c, 0x08, 0xfd,
  0xf4, 0xf5, 0xeb, 0xcc, 0x26, 0xf8, 0xd3, 0xd2, 0x3b, 0x17, 0xd9, 0xad,
  0xcf, 0x08, 0x08, 0x0c, 0x1e, 0x25, 0x12, 0xf4, 0xcb, 0xbb, 0xd6, 0xec,
  0x09, 0xdf, 0x1a, 0xf6, 0xcd, 0xed, 0xf6, 0xf6, 0xc2, 0x24, 0x2f, 0x06,
  0xc8, 0xe3, 0x26, 0x36, 0xf0, 0x5c, 0xd6, 0x22, 0xf2, 0xe6, 0xf5, 0xf9,
  0x3b, 0xe6, 0x40, 0x2d, 0x2b, 0x0f, 0xd4, 0xfb, 0x09, 0x3f, 0x32, 0xda,
  0xfb, 0xf8, 0x09, 0xee, 0x2a, 0xf5, 0x53, 0xe5, 0x01, 0x08, 0x6a, 0x3f,
  0xd9, 0x16, 0xe6, 0x39, 0xe0, 0x37, 0xee, 0x0b, 0x08, 0x0d, 0xcc, 0x22,
  0xd3, 0x30, 0x25, 0x31, 0x1a, 0x11, 0x23, 0xd6, 0x29, 0xdd, 0x14, 0xd5,
  0x23, 0xfd, 0xfb, 0xf2, 0x17, 0x09, 0xc6, 0xca, 0xbe, 0x1a, 0xf7, 0x0e,
  0x04, 0x11, 0xf3, 0x26, 0x31, 0x16, 0x19, 0xce, 0x62, 0xcf, 0x0a, 0x0d,
  0x08, 0xd7, 0x44, 0x5a, 0x37, 0x5d, 0x33, 0x26, 0xd4, 0x29, 0xf4, 0xed,
  0x5e, 0x18, 0x9f, 0xd5, 0xf5, 0x8f, 0x10, 0xd7, 0x65, 0xd6, 0xb0, 0x0b,
  0x31, 0x20, 0x1d, 0x18, 0xf4, 0xcc, 0x4a, 0x30, 0xd1, 0x15, 0x21, 0x1a,
  0x0c, 0x62, 0x3f, 0x2b, 0xeb, 0x50, 0x2b, 0x2a, 0x44, 0x30, 0x14, 0xf3,
  0x51, 0xfa, 0x4e, 0xc8, 0x10, 0xe5, 0xbe, 0xee, 0xd9, 0xc8, 0xe2, 0x09,
  0xd3, 0x3e, 0x15, 0x27, 0x10, 0xe2, 0xb5, 0x1c, 0xe5, 0x18, 0xf5, 0xc4,
  0x08, 0x19, 0x38, 0x1c, 0xed, 0xfc, 0x3b, 0x47, 0x16, 0x48, 0xcb, 0xea,
  0xf1, 0xe9, 0xca, 0xb7, 0xda, 0xd3, 0x1e, 0xfe, 0xc5, 0x02, 0xe1, 0xf2,
  0xec, 0xb2, 0xd6, 0x0f, 0x1c, 0xc6, 0xdc, 0xe1, 0xf6, 0xdd, 0x06, 0x13,
  0x18, 0xe2, 0xf3, 0xe2, 0x0c, 0xc5, 0x02, 0x09, 0xcd, 0x1b, 0x11, 0xfe,
  0xf9, 0x21, 0x18, 0xec, 0x21, 0x05, 0xe0, 0xf7, 0xd9, 0xed, 0xc0, 0xdd,
  0xe2, 0x06, 0x2e, 0x20, 0x9b, 0xf0, 0x0d, 0xc6, 0xe5, 0x12, 0xc8, 0xca,
  0x12, 0x17, 0x37, 0xcf, 0x1f, 0xcd, 0xfd, 0x0e, 0x1b, 0xe7, 0x52, 0xf4,
  0x1d, 0x44, 0xd6, 0xfa, 0x4b, 0x26, 0xb9, 0x33, 0xdb, 0xf2, 0x26, 0xef,
  0xfc, 0xff, 0x24, 0x16, 0xeb, 0xea, 0xf6, 0x0b, 0x09, 0x1b, 0x18, 0x12,
  0x35, 0x00, 0xee, 0xe3, 0x2c, 0x00, 0x36, 0xc9, 0xfe, 0x01, 0xef, 0xf6,
  0x56, 0x54, 0x12, 0x28, 0x2b, 0xe7, 0x30, 0x2f, 0x0d, 0x15, 0x51, 0xf8,
  0xe0, 0x18, 0x1f, 0x52, 0xf1, 0x2d, 0x1e, 0x35, 0x10, 0x1f, 0xe6, 0x28,
  0x02, 0x16, 0xec, 0xdd, 0xe5, 0xeb, 0xe2, 0xc9, 0x4e, 0xc3, 0x14, 0xf1,
  0x2c, 0xdc, 0x39, 0xd2, 0xec, 0xf2, 0x2a, 0x24, 0x01, 0xe4, 0xf4, 0xf5,
  0xe3, 0xbb, 0x08, 0x4d, 0xdb, 0xd5, 0xf3, 0x33, 0x4a, 0x3f, 0x10, 0xe6,
  0x54, 0xc8, 0x3c, 0xfc, 0x2e, 0xe3, 0x46, 0x67, 0x18, 0x03, 0x39, 0x0e,
  0xdb, 0xe4, 0xee, 0xf0, 0x4f, 0xf0, 0xaf, 0xfb, 0x19, 0xb4, 0x3c, 0xec,
  0x04, 0x09, 0x13, 0x66, 0x25, 0x3e, 0x4b, 0xde, 0x11, 0xfe, 0x21, 0x5a,
  0x5e, 0x39, 0xf7, 0x43, 0x3b, 0x5f, 0x3a, 0x0d, 0x24, 0x22, 0x1f, 0x12,
  0x20, 0x55, 0x18, 0x0a, 0x3d, 0x41, 0x32, 0xa9, 0x39, 0x38, 0xf2, 0x26,
  0xce, 0xf4, 0xe8, 0xdc, 0x02, 0x11, 0xe7, 0x23, 0x2e, 0x20, 0x2f, 0xda,
  0x31, 0x0a, 0xdf, 0x1d, 0x0a, 0xd5, 0xef, 0x18, 0xf0, 0x21, 0xf6, 0x17,
  0x30, 0x1c, 0x2e, 0xf9, 0x04, 0x2e, 0xf9, 0xbc, 0xec, 0x25, 0x17, 0xf9,
  0xf7, 0xb6, 0xe1, 0x07, 0x1b, 0x11, 0x01, 0xe1, 0xe3, 0x1b, 0x22, 0xe8,
  0xde, 0xd1, 0x15, 0x04, 0x1e, 0xfc, 0xc5, 0x16, 0x04, 0xda, 0x0e, 0x33,
  0xd2, 0xd9, 0x13, 0x29, 0xe3, 0x33, 0xe5, 0xf0, 0xd8, 0xf9, 0xfd, 0xde,
  0x43, 0x31, 0xe1, 0x38, 0xf4, 0x09, 0x32, 0xdf, 0x3b, 0x21, 0x0b, 0x0d,
  0x13, 0xf1, 0x0c, 0xcf, 0xd3, 0xe7, 0x29, 0xb0, 0xe8, 0xd7, 0x04, 0xd6,
  0xef, 0xe1, 0x44, 0xd3, 0x4b, 0x2b, 0xdb, 0xd2, 0x4d, 0xf9, 0xc9, 0xc9,
  0x12, 0x15, 0xf7, 0xe8, 0x62, 0xe5, 0x36, 0x11, 0xd3, 0x1d, 0x03, 0x14,
  0xee, 0x26, 0x16, 0x2b, 0xf4, 0x21, 0xfd, 0xf7, 0x35, 0xca, 0xe1, 0xea,
  0xf6, 0xf6, 0x0e, 0xeb, 0xf7, 0xf6, 0xec, 0xe1, 0x39, 0xd0, 0x1a, 0x18,
  0x3b, 0x22, 0x0f, 0xf1, 0xca, 0xbb, 0x4f, 0xfa, 0xc9, 0x05, 0x13, 0xfb,
  0x01, 0xec, 0x3f, 0xfd, 0x03, 0x25, 0xdf, 0xfb, 0xd3, 0xbe, 0x23, 0xd7,
  0x15, 0xee, 0x31, 0xe7, 0xf6, 0xd7, 0x0e, 0x10, 0xdf, 0xec, 0xe4, 0xd4,
  0xf3, 0xea, 0xdf, 0xf7, 0xb9, 0x34, 0x07, 0x5a, 0xe4, 0xed, 0x39, 0x64,
  0x06, 0x03, 0x2c, 0x07, 0x37, 0xf6, 0x50, 0x5c, 0x37, 0xcf, 0x1f, 0x22,
  0xe3, 0x2a, 0x04, 0x05, 0x3a, 0x2f, 0xf8, 0x2c, 0xfa, 0x3d, 0xc2, 0xf2,
  0xfa, 0xc1, 0x12, 0xb6, 0x45, 0x0b, 0xda, 0x02, 0x30, 0x5b, 0x3f, 0xfd,
  0x5b, 0xfa, 0x1c, 0x27, 0x63, 0x37, 0xd9, 0x4c, 0x09, 0x20, 0xf2, 0x37,
  0x60, 0x34, 0x38, 0xd6, 0x16, 0x29, 0x38, 0x1b, 0x41, 0xcd, 0x46, 0xdb,
  0x5c, 0x01, 0x14, 0x16, 0xeb, 0x43, 0x30, 0xf6, 0xc8, 0xc5, 0xcf, 0x34,
  0xbe, 0x2f, 0xe8, 0x25, 0x07, 0xdf, 0x25, 0x3b, 0x19, 0xfe, 0x3c, 0xf2,
  0x20, 0x43, 0x17, 0x3e, 0x24, 0xf6, 0x31, 0xcd, 0x1a, 0x00, 0xca, 0xe3,
  0xc9, 0xf9, 0xeb, 0xd4, 0xd7, 0xf5, 0x0e, 0xf1, 0x05, 0x24, 0xf3, 0x06,
  0xda, 0x2f, 0x00, 0x37, 0x52, 0xf9, 0x05, 0x0a, 0x0a, 0xe8, 0x26, 0x48,
  0xcd, 0xf6, 0x2a, 0xd5, 0xd9, 0xc8, 0x19, 0x1a, 0xe9, 0xd3, 0xf9, 0xf7,
  0xd6, 0x0a, 0xc7, 0x20, 0xf0, 0x1a, 0xd6, 0x1c, 0x14, 0x0b, 0x05, 0xed,
  0xe2, 0xdc, 0xde, 0x14, 0x03, 0xfa, 0x17, 0x1e, 0x02, 0x05, 0x12, 0xd5,
  0xdd, 0xf3, 0xca, 0xf9, 0x2d, 0xe2, 0x10, 0xe1, 0xdb, 0x5d, 0xfb, 0x26,
  0x5f, 0x06, 0xd1, 0xd4, 0xb8, 0xd7, 0xf9, 0x23, 0x40, 0x3b, 0x4e, 0x2d,
  0xef, 0xea, 0x40, 0x3b, 0xe5, 0x65, 0xff, 0x59, 0x12, 0xd2, 0xe9, 0xfe,
  0x22, 0x0a, 0xe9, 0x22, 0xfe, 0xf9, 0x16, 0x1d, 0x2b, 0x30, 0x08, 0xb4,
  0xfd, 0x16, 0xc4, 0xc3, 0x53, 0x17, 0xcb, 0x32, 0xde, 0xc3, 0x1a, 0x68,
  0xd6, 0x38, 0x1d, 0x50, 0x09, 0xe2, 0x3b, 0xec, 0x23, 0xd5, 0xec, 0x17,
  0xd9, 0xf8, 0x1b, 0xc6, 0x41, 0x01, 0xfb, 0x22, 0x26, 0xbf, 0xba, 0x03,
  0x05, 0xdd, 0x27, 0x13, 0xe7, 0xe8, 0xda, 0x1a, 0x2c, 0x16, 0xe7, 0xf9,
  0x04, 0xe1, 0x07, 0xe3, 0x26, 0x22, 0xb6, 0xb1, 0x25, 0x01, 0xfd, 0x2a,
  0x23, 0xd9, 0x12, 0xf0, 0x3b, 0xfa, 0x52, 0xd9, 0x35, 0xfb, 0x21, 0xf3,
  0xfe, 0xf0, 0xb1, 0x06, 0xee, 0xcf, 0x1e, 0xd8, 0xf9, 0x0d, 0x10, 0x0a,
  0x35, 0x17, 0x45, 0xd2, 0xe9, 0xf2, 0x36, 0x11, 0x16, 0xcb, 0x3c, 0x35,
  0xd0, 0x43, 0xef, 0x17, 0xb2, 0xf9, 0xf9, 0x11, 0x12, 0xf2, 0xa1, 0xfb,
  0x45, 0x8e, 0x5a, 0x89, 0x57, 0x23, 0x07, 0x5d, 0xed, 0xf3, 0x40, 0xcf,
  0xd0, 0xeb, 0xe0, 0x36, 0x4b, 0xda, 0x01, 0xec, 0x0e, 0xe0, 0x0e, 0x04,
  0xed, 0x10, 0xf9, 0x1f, 0xfe, 0x47, 0xea, 0xf3, 0xee, 0xfe, 0x18, 0x12,
  0x33, 0x34, 0xe1, 0xe9, 0xde, 0xcd, 0x2f, 0xe7, 0xb1, 0x26, 0xf1, 0x0e,
  0xfa, 0xe6, 0x13, 0x1e, 0x0c, 0x06, 0x24, 0xe4, 0x3a, 0x0e, 0xd6, 0xbc,
  0x0b, 0x33, 0xeb, 0x4c, 0x2b, 0x38, 0x03, 0xe5, 0xfa, 0xf0, 0xd3, 0xbe,
  0xf7, 0xe1, 0x24, 0xd9, 0x1b, 0xce, 0xcd, 0xb3, 0xf2, 0xf4, 0xcf, 0xe9,
  0x31, 0x1d, 0x17, 0xf5, 0x33, 0xc3, 0x11, 0x04, 0x02, 0xee, 0xc9, 0xfd,
  0x18, 0xfa, 0x03, 0xb5, 0xbf, 0xe1, 0x1d, 0xfc, 0x2b, 0xd1, 0x03, 0x2c,
  0x36, 0x2c, 0xc1, 0x0d, 0xfb, 0x71, 0xb0, 0xf2, 0x32, 0xdf, 0x08, 0x22,
  0x5f, 0xde, 0xfc, 0x06, 0xad, 0x44, 0x11, 0x16, 0x3d, 0x41, 0xff, 0xdc,
  0x16, 0x03, 0x07, 0xdf, 0x11, 0x13, 0x08, 0x60, 0xa5, 0x62, 0xbe, 0xe4,
  0x1b, 0xd0, 0x0a, 0xfe, 0xeb, 0xc7, 0xf3, 0xa2, 0x09, 0xe5, 0x13, 0xfe,
  0xd8, 0xdc, 0x1a, 0x37, 0xa8, 0x10, 0xb2, 0x3c, 0xba, 0x37, 0x19, 0xf6,
  0xae, 0xde, 0xf4, 0x05, 0xff, 0xb1, 0xea, 0xc4, 0xf2, 0xda, 0xa8, 0xbf,
  0x1f, 0xe0, 0xf0, 0xdb, 0xb8, 0xb8, 0xd8, 0x3c, 0xc9, 0xcb, 0xd3, 0xe5,
  0xbe, 0xb1, 0xd0, 0xe4, 0xb1, 0xd2, 0x66, 0x11, 0x08, 0xb2, 0xc1, 0x12,
  0xf1, 0xa2, 0xeb, 0xb4, 0x3e, 0xaa, 0x37, 0xe9, 0xfb, 0xb4, 0xd9, 0xb2,
  0xef, 0xe3, 0x1d, 0xda, 0x07, 0xa6, 0xea, 0xe9, 0xb1, 0xf2, 0xfd, 0x29,
  0x95, 0x22, 0x4b, 0xe9, 0x23, 0x01, 0x40, 0xf8, 0x0f, 0xed, 0x2d, 0x07,
  0x22, 0xc9, 0x42, 0x53, 0xe2, 0xf4, 0x50, 0x48, 0xc9, 0x04, 0x1c, 0x0c,
  0x11, 0x1a, 0xf6, 0xc9, 0x02, 0x96, 0x15, 0xbd, 0x0b, 0x22, 0xd0, 0xf1,
  0x42, 0x49, 0xf9, 0x06, 0xfe, 0xab, 0x04, 0xe1, 0x07, 0xc9, 0x9f, 0xfe,
  0xf1, 0xcc, 0xe5, 0x35, 0x31, 0x41, 0x18, 0xd5, 0x12, 0xf2, 0x40, 0xdd,
  0x13, 0xf9, 0x10, 0xdb, 0x37, 0x36, 0xab, 0xd5, 0xbd, 0x0f, 0x29, 0xc4,
  0xee, 0x3d, 0xc7, 0xbf, 0xf4, 0xd3, 0xd4, 0xca, 0x23, 0xf0, 0xf7, 0xff,
  0x03, 0x19, 0x00, 0x28, 0xae, 0xdf, 0xd1, 0x05, 0x28, 0xf4, 0xf9, 0x36,
  0xc5, 0x12, 0x45, 0x20, 0xc8, 0xe5, 0xc1, 0xd5, 0xce, 0xec, 0xfe, 0x19,
  0xc8, 0xcc, 0x11, 0xf0, 0x3b, 0x1c, 0x12, 0xbc, 0xfb, 0xe4, 0xde, 0xfc,
  0xef, 0xdc, 0xe2, 0xe9, 0xbd, 0x2e, 0xdc, 0x06, 0xe0, 0x21, 0x41, 0xcc,
  0xfa, 0xfb, 0xfc, 0xe5, 0xd0, 0xfa, 0x4b, 0x12, 0x4b, 0x0e, 0x32, 0x23,
  0x25, 0x11, 0xe3, 0x4b, 0x1f, 0xe4, 0x2e, 0x32, 0xd4, 0x3e, 0xa2, 0x5a,
  0x23, 0xf2, 0x44, 0x11, 0x2c, 0x0b, 0x01, 0x20, 0x14, 0x21, 0x01, 0xc2,
  0x29, 0xd5, 0x1d, 0x2e, 0x2f, 0x50, 0xd1, 0x0a, 0xcf, 0xfe, 0x3d, 0x2b,
  0xf2, 0x04, 0x4e, 0xc1, 0x1f, 0x31, 0xe4, 0x05, 0x39, 0x29, 0xf7, 0x11,
  0xf7, 0xd0, 0x0e, 0xd6, 0xfe, 0x37, 0x3e, 0xd3, 0x0b, 0xe2, 0x0f, 0x17,
  0x3d, 0xe0, 0xa9, 0xe8, 0xc9, 0xe2, 0xf5, 0xdc, 0x1e, 0xeb, 0xee, 0x04,
  0x22, 0x27, 0x01, 0x0a, 0x02, 0x13, 0x2f, 0x05, 0xfc, 0xf4, 0xf8, 0xd3,
  0x0d, 0xec, 0x0f, 0x29, 0xdd, 0x16, 0xd1, 0x02, 0x5e, 0x0c, 0xac, 0xfc,
  0xdc, 0x11, 0xce, 0xd2, 0xf8, 0xef, 0x46, 0xef, 0xc1, 0xe4, 0x05, 0x6b,
  0xf7, 0x29, 0x13, 0x30, 0xbc, 0xc6, 0x2a, 0xc5, 0xa6, 0xae, 0x00, 0x1f,
  0x58, 0xe7, 0xb3, 0xea, 0x20, 0xd0, 0xe9, 0x20, 0xed, 0x1b, 0xca, 0xed,
  0x28, 0x0a, 0x0d, 0x1b, 0x1d, 0xc9, 0xe2, 0xf6, 0xc0, 0xe2, 0xc1, 0x1b,
  0xff, 0xfd, 0xdc, 0x55, 0x47, 0x07, 0xfc, 0xf5, 0x3b, 0xb4, 0xe7, 0xe7,
  0xf8, 0x17, 0x1f, 0xdc, 0xcc, 0x10, 0xf1, 0xee, 0xde, 0x37, 0xd8, 0xe8,
  0xd3, 0xed, 0xc4, 0xe7, 0xcb, 0x2e, 0x14, 0x0b, 0xdf, 0xe6, 0xa8, 0xfc,
  0x0c, 0xd3, 0x16, 0xd4, 0x15, 0xb3, 0xe2, 0xdf, 0x22, 0x4e, 0xd6, 0x3a,
  0x24, 0x09, 0x1d, 0xf2, 0x17, 0xf0, 0x22, 0xf1, 0xdd, 0xf0, 0x34, 0x23,
  0xea, 0xce, 0x04, 0x28, 0x18, 0x10, 0x29, 0xe7, 0xfa, 0x1a, 0xfb, 0x25,
  0xd9, 0x41, 0xe1, 0x10, 0xeb, 0xf3, 0xe8, 0x00, 0xec, 0xfd, 0xce, 0x21,
  0xc7, 0x24, 0x07, 0xee, 0xf0, 0x0e, 0xee, 0x0d, 0x1f, 0x2f, 0xd2, 0x05,
  0xfa, 0x0b, 0xc5, 0xc3, 0x04, 0xf1, 0xef, 0xe5, 0xbe, 0xd8, 0xf9, 0x23,
  0xe4, 0xc2, 0x09, 0xf6, 0xd6, 0x00, 0x33, 0xe5, 0xef, 0xe7, 0xf9, 0x06,
  0xfc, 0xf1, 0x32, 0x9f, 0x31, 0xe9, 0x31, 0x36, 0x41, 0xdd, 0x33, 0x2a,
  0x23, 0x18, 0xbd, 0xf5, 0xff, 0xbe, 0xfd, 0x14, 0xba, 0x12, 0xe6, 0x27,
  0xce, 0x08, 0xcd, 0x34, 0xf4, 0x18, 0x0c, 0xf8, 0x13, 0xde, 0x21, 0xdb,
  0xed, 0xd0, 0x20, 0xe0, 0xec, 0x2f, 0xc2, 0x0f, 0x27, 0x18, 0x16, 0xeb,
  0x3b, 0x58, 0xd4, 0xd9, 0xef, 0x48, 0xa6, 0xfb, 0xce, 0xde, 0xd5, 0xfd,
  0x10, 0x25, 0x1d, 0xfa, 0x1d, 0xf6, 0x16, 0x43, 0xe0, 0x69, 0x05, 0x67,
  0x16, 0xf0, 0x10, 0xa5, 0xb2, 0xb0, 0xd1, 0xfd, 0xe7, 0x16, 0xe6, 0xb7,
  0x49, 0x53, 0x88, 0xfd, 0x0b, 0xe5, 0xf7, 0x15, 0x6d, 0x0f, 0x17, 0x1d,
  0xb6, 0xb7, 0x6d, 0x0c, 0xd3, 0x31, 0xfc, 0x20, 0xc2, 0xdc, 0x34, 0xd2,
  0xa2, 0xf9, 0xee, 0x19, 0xf4, 0xa3, 0xfa, 0xfd, 0xc3, 0xef, 0xef, 0xb9,
  0x04, 0xe2, 0xca, 0x0b, 0x23, 0x95, 0xa3, 0xd9, 0xe4, 0xd4, 0xb6, 0xc3,
  0x97, 0xa7, 0xf4, 0xeb, 0xd9, 0xcc, 0x56, 0xf0, 0xc7, 0xe2, 0xd7, 0xc7,
  0x20, 0xfa, 0x17, 0xf4, 0xf2, 0xf0, 0xdf, 0xfb, 0x0d, 0x1b, 0xb8, 0xd7,
  0xfc, 0xc5, 0x0b, 0xfc, 0x08, 0xd1, 0xba, 0xdc, 0x1b, 0x9f, 0x12, 0xa0,
  0x0a, 0x1b, 0x05, 0x2e, 0xd1, 0x14, 0x0a, 0x1d, 0x0d, 0xe7, 0xe0, 0x03,
  0xfe, 0xf4, 0xdf, 0xd0, 0x36, 0xd9, 0x23, 0x01, 0xe1, 0xe4, 0xd9, 0xce,
  0x05, 0xd6, 0x0d, 0xc9, 0x0a, 0xf5, 0x2f, 0xf4, 0xfd, 0xfa, 0xfb, 0xc0,
  0xe1, 0xcf, 0xdf, 0xdb, 0xec, 0x19, 0xec, 0xcf, 0xc8, 0xe9, 0x15, 0x0c,
  0x0d, 0xf2, 0x26, 0xf1, 0xcb, 0xe9, 0xdc, 0xf6, 0xf7, 0x28, 0xf6, 0x23,
  0x26, 0x24, 0xe0, 0xf6, 0x08, 0xfd, 0xf7, 0xe1, 0x09, 0x34, 0x17, 0xe9,
  0x2c, 0xf7, 0x43, 0xd4, 0xe8, 0x19, 0x32, 0x12, 0xcc, 0x4a, 0x28, 0x03,
  0xb7, 0x0c, 0xf9, 0xfc, 0x27, 0x35, 0x1f, 0xcb, 0xd2, 0x12, 0xea, 0xf9,
  0x07, 0x21, 0x02, 0x31, 0x29, 0x38, 0xd6, 0xd2, 0xc8, 0xfa, 0x20, 0xd0,
  0xb5, 0xdd, 0x00, 0x35, 0x21, 0xf7, 0x0e, 0x21, 0xea, 0xd6, 0xe6, 0x0c,
  0xdf, 0xf1, 0xf1, 0xad, 0x27, 0xde, 0x22, 0xf3, 0x0c, 0xd7, 0xc7, 0x33,
  0xbd, 0xf5, 0xfd, 0xcf, 0x3c, 0x3f, 0x1e, 0x16, 0x1d, 0x1c, 0xc7, 0x1a,
  0xc7, 0x08, 0xb7, 0xea, 0x3e, 0x3c, 0x42, 0x27, 0xf7, 0x4f, 0x42, 0x63,
  0xe2, 0x01, 0x25, 0x0f, 0x14, 0xe7, 0xc9, 0xaa, 0x95, 0xa5, 0xeb, 0x21,
  0xe7, 0x5e, 0x07, 0xd2, 0x29, 0x63, 0xf3, 0x97, 0xed, 0xa6, 0xde, 0xd6,
  0x2b, 0x09, 0x36, 0xfe, 0xa6, 0xaa, 0x69, 0x5a, 0xac, 0x15, 0xa5, 0x0b,
  0xaf, 0x23, 0x2c, 0xca, 0xf4, 0xa2, 0xd9, 0xfc, 0x13, 0x13, 0xb5, 0xae,
  0xc8, 0x9f, 0xf8, 0xc3, 0xc6, 0xcf, 0x15, 0xa2, 0xe9, 0xf9, 0xc3, 0x20,
  0xf3, 0xcb, 0x90, 0xea, 0xf5, 0xd9, 0xf8, 0xf9, 0xad, 0x37, 0x1f, 0xde,
  0xe2, 0xe8, 0x3b, 0x23, 0x44, 0x1b, 0xf3, 0x2a, 0x18, 0x15, 0x15, 0x06,
  0x27, 0x2c, 0xe2, 0xd7, 0xde, 0xe4, 0xe9, 0xee, 0xcb, 0x2a, 0xba, 0x9c,
  0xd3, 0x13, 0x0a, 0xf2, 0x2d, 0x38, 0xa8, 0xde, 0xf8, 0x19, 0x35, 0xdc,
  0x19, 0x0f, 0x23, 0x16, 0xbb, 0xdf, 0x18, 0x34, 0x01, 0x22, 0xfc, 0x1d,
  0xc4, 0x22, 0x11, 0x09, 0x06, 0x24, 0xed, 0xad, 0xf0, 0xc1, 0xe3, 0xd0,
  0x1c, 0x2b, 0xd6, 0xc5, 0xd6, 0xcb, 0xed, 0x04, 0x00, 0xf5, 0xc6, 0xe1,
  0x26, 0xcc, 0xdd, 0xeb, 0xf0, 0xf0, 0xe9, 0xfc, 0x17, 0xdc, 0xd5, 0xfc,
  0x04, 0x0f, 0xe8, 0x02, 0xe7, 0x3b, 0x24, 0xe7, 0x35, 0xeb, 0xf9, 0xdf,
  0x33, 0xd3, 0x0b, 0xce, 0xfe, 0xcd, 0xfd, 0xdb, 0xe3, 0x0b, 0xee, 0xce,
  0xe8, 0x0f, 0x2e, 0x33, 0xb0, 0xf0, 0xd5, 0xcc, 0xdd, 0x25, 0xdb, 0xf6,
  0xf5, 0xd9, 0xf2, 0xc4, 0xdf, 0xe2, 0x17, 0x1d, 0xe9, 0x0c, 0x02, 0x03,
  0xea, 0xc3, 0xe2, 0x13, 0x19, 0xb1, 0xdd, 0xfd, 0x1e, 0x0e, 0x3c, 0xff,
  0xed, 0x0c, 0xfd, 0xff, 0xeb, 0x30, 0xea, 0x8e, 0x06, 0xc5, 0xfd, 0xb9,
  0xdd, 0xc7, 0xca, 0x2d, 0x33, 0xf4, 0x3b, 0xf2, 0x3b, 0x34, 0x12, 0xda,
  0x16, 0x40, 0xbd, 0xf2, 0x2d, 0x09, 0xd4, 0x11, 0xf6, 0x14, 0x13, 0x05,
  0xf1, 0x4f, 0x27, 0x25, 0xf3, 0x34, 0x05, 0x31, 0x05, 0xe0, 0x04, 0xe2,
  0xd1, 0xb3, 0xa5, 0x05, 0x04, 0x0c, 0xa3, 0xd0, 0xc5, 0x65, 0xe9, 0xc7,
  0xe2, 0xad, 0xc1, 0xca, 0x11, 0xb8, 0xe6, 0xea, 0xa2, 0xa8, 0x28, 0x3f,
  0xea, 0x72, 0xaf, 0x22, 0xa7, 0x19, 0xf9, 0xd3, 0xf0, 0xe1, 0xe6, 0xe9,
  0xf9, 0xeb, 0xdd, 0x9c, 0x98, 0xf8, 0x1a, 0xc9, 0x1f, 0xd9, 0xb5, 0xdf,
  0xcd, 0xf5, 0xf3, 0x07, 0xbd, 0xfa, 0xfa, 0xe2, 0xda, 0xe5, 0xba, 0x1e,
  0xef, 0xcf, 0x10, 0xe7, 0x11, 0xe0, 0x3f, 0x14, 0xd2, 0x4a, 0xf1, 0xf1,
  0xdb, 0xbc, 0xd8, 0x11, 0x17, 0x0a, 0x2b, 0x06, 0xf3, 0x1c, 0x38, 0xf6,
  0xe2, 0x08, 0xb3, 0x18, 0xd6, 0x18, 0x2f, 0x43, 0x28, 0x18, 0x0a, 0xf8,
  0xd4, 0x38, 0x26, 0x10, 0xd3, 0x11, 0xe6, 0x33, 0x1c, 0x21, 0x41, 0x05,
  0xd8, 0x25, 0xce, 0x02, 0x3d, 0x17, 0x03, 0xd0, 0x2e, 0x23, 0x18, 0x01,
  0x25, 0xd1, 0xf5, 0xd3, 0xf1, 0xf6, 0xf6, 0xdc, 0x31, 0x19, 0xcf, 0x05,
  0xd3, 0xc4, 0xf7, 0x00, 0xc4, 0xcd, 0x31, 0xca, 0xcd, 0x33, 0x04, 0x3c,
  0x1f, 0x24, 0xdd, 0x19, 0xea, 0x14, 0xe2, 0x09, 0x05, 0xd2, 0x24, 0xad,
  0x20, 0x28, 0xee, 0xfc, 0xdf, 0xde, 0xf6, 0x17, 0x0f, 0xd1, 0xe0, 0xe5,
  0xd8, 0xcb, 0x3a, 0xde, 0x0c, 0xf0, 0xff, 0x08, 0x11, 0x3a, 0xd9, 0x32,
  0x21, 0xdb, 0x06, 0xed, 0xd6, 0xfb, 0xe2, 0xc5, 0x12, 0x2a, 0xcd, 0x30,
  0xd5, 0x16, 0xff, 0x0c, 0x16, 0xe4, 0x48, 0x22, 0xbf, 0xff, 0x15, 0x13,
  0x0d, 0x4b, 0x11, 0xf5, 0xe9, 0x1b, 0xd8, 0xd7, 0xed, 0x44, 0xe5, 0xfb,
  0x39, 0xe3, 0x3d, 0x8f, 0x0c, 0xeb, 0x14, 0x2a, 0x2e, 0xf5, 0x39, 0xc5,
  0x60, 0x16, 0x22, 0x19, 0x3a, 0xf1, 0xa1, 0x09, 0xed, 0x1c, 0x1c, 0xe7,
  0x56, 0x0b, 0x3e, 0x2d, 0xca, 0x3d, 0x21, 0x37, 0x3b, 0x0e, 0x16, 0x2f,
  0x05, 0xdc, 0xba, 0xf7, 0xcd, 0xf8, 0xb7, 0x05, 0xba, 0x4c, 0xa3, 0xdb,
  0x17, 0x19, 0xfe, 0x95, 0x3b, 0x06, 0x9f, 0xd2, 0xf7, 0x9f, 0x34, 0x23,
  0xfe, 0xd9, 0x3f, 0x24, 0x99, 0x11, 0xd4, 0x37, 0xd0, 0x09, 0xe0, 0xf5,
  0x96, 0xdc, 0xbb, 0x0a, 0x2a, 0xea, 0x11, 0xb2, 0x04, 0x99, 0xf1, 0xe9,
  0xe6, 0xa4, 0xfa, 0xa1, 0x0e, 0xc6, 0x02, 0xea, 0xda, 0xe3, 0xab, 0xc4,
  0xe3, 0xf4, 0xdb, 0x0a, 0xac, 0xd1, 0x24, 0xcb, 0x1f, 0x02, 0x31, 0xfe,
  0x0c, 0x49, 0xe0, 0x06, 0xf7, 0xa8, 0x33, 0xc7, 0xed, 0x1f, 0xf7, 0xe6,
  0x46, 0xdb, 0x3f, 0x01, 0x16, 0x16, 0x31, 0x43, 0xf6, 0xde, 0x17, 0x65,
  0xf4, 0x30, 0xb2, 0x29, 0xfa, 0x41, 0x20, 0xfc, 0x0e, 0xf2, 0xd4, 0xf5,
  0x14, 0x1a, 0x18, 0x03, 0x1e, 0x1c, 0x2b, 0xfb, 0xef, 0x0d, 0xfb, 0x10,
  0xd5, 0xfe, 0x40, 0x3c, 0x22, 0x45, 0xda, 0xcd, 0x43, 0xe6, 0xf0, 0xd8,
  0x14, 0xe6, 0xe6, 0xff, 0x2b, 0xe9, 0x0a, 0xce, 0x33, 0xf1, 0xe4, 0x3c,
  0xcd, 0x40, 0x2a, 0xf6, 0xc0, 0xe3, 0x09, 0xcb, 0x1b, 0x35, 0x17, 0x2b,
  0x1a, 0x2b, 0x10, 0xf4, 0x1c, 0x28, 0x0f, 0xdd, 0x38, 0x11, 0x32, 0xdb,
  0xef, 0x0e, 0xdb, 0xdf, 0xd0, 0xfc, 0x17, 0x0c, 0x21, 0xe4, 0x08, 0x39,
  0x01, 0x30, 0xd0, 0x0d, 0xf6, 0x2a, 0xb8, 0xb9, 0x28, 0xe3, 0xf4, 0xb7,
  0xf6, 0x30, 0xe6, 0xd8, 0x11, 0xe6, 0x52, 0x09, 0x00, 0xa7, 0x16, 0x3e,
  0x36, 0xd0, 0x0f, 0xfa, 0x3b, 0x39, 0xf6, 0x24, 0xfe, 0x32, 0xd3, 0xde,
  0x0e, 0xe9, 0xe5, 0x4e, 0x24, 0xfe, 0xfa, 0xa8, 0x42, 0x00, 0x06, 0x03,
  0xf1, 0x14, 0x53, 0xf2, 0xb2, 0x17, 0xff, 0x1b, 0x31, 0xe2, 0xa0, 0x08,
  0x30, 0x25, 0xae, 0x33, 0x27, 0x0c, 0x0e, 0xfb, 0x05, 0x4c, 0x63, 0x31,
  0x0f, 0x5a, 0x22, 0x2f, 0xe0, 0x2c, 0x1c, 0x9f, 0xa3, 0xcb, 0x8f, 0x36,
  0xf0, 0xb8, 0xd9, 0xc2, 0xca, 0xdb, 0xc8, 0xbf, 0x0e, 0xe7, 0x9a, 0xa0,
  0x32, 0x08, 0xfc, 0x01, 0x09, 0xbb, 0xd9, 0xd2, 0xa0, 0x58, 0xf1, 0x96,
  0xbd, 0x02, 0x18, 0xb5, 0xd0, 0xf1, 0xac, 0x0a, 0x34, 0xab, 0xc3, 0xb2,
  0xc9, 0x95, 0xea, 0x06, 0xd6, 0x14, 0xe0, 0xa0, 0xef, 0xd7, 0xa4, 0xca,
  0xe4, 0xe4, 0xf4, 0xaf, 0xcc, 0xab, 0xe3, 0xfd, 0xd8, 0x13, 0x15, 0xea,
  0xef, 0x25, 0x34, 0xc2, 0x10, 0x5e, 0x41, 0x22, 0x18, 0x17, 0xce, 0x18,
  0x31, 0xfc, 0x20, 0xee, 0x07, 0x1b, 0xd3, 0x1c, 0x31, 0x28, 0x38, 0x21,
  0xeb, 0xaa, 0xf5, 0x0c, 0x12, 0x36, 0xe1, 0xf6, 0x44, 0x27, 0x01, 0x18,
  0xc6, 0x0c, 0x2f, 0xe5, 0x2f, 0xce, 0xd0, 0x13, 0xd5, 0xfb, 0x38, 0x11,
  0xf3, 0x2f, 0x3b, 0xe1, 0x06, 0x18, 0x3b, 0x0f, 0x11, 0x19, 0xed, 0x8d,
  0xf4, 0x1d, 0xfa, 0xd4, 0x24, 0xe9, 0xf0, 0xd0, 0x0c, 0x2a, 0x0e, 0xfc,
  0x28, 0xd8, 0xdb, 0x0c, 0x0d, 0x42, 0xe8, 0x20, 0x22, 0xd8, 0xe5, 0x31,
  0x2a, 0xdc, 0xef, 0x0e, 0x01, 0x11, 0x01, 0x13, 0xfb, 0x14, 0xfb, 0x2e,
  0x1e, 0x0a, 0x31, 0xaa, 0xcf, 0x00, 0x17, 0x37, 0xfd, 0xe3, 0xe2, 0x1c,
  0xd2, 0x1b, 0x01, 0xfe, 0xfd, 0x21, 0x36, 0xc5, 0x29, 0x12, 0xd8, 0xd8,
  0x39, 0xeb, 0x01, 0xa0, 0x02, 0x36, 0x08, 0x38, 0x0c, 0x13, 0x35, 0x28,
  0x02, 0x06, 0xea, 0xed, 0xd8, 0x2e, 0x28, 0x3e, 0xcf, 0xf8, 0x39, 0xf0,
  0x18, 0xe6, 0xdb, 0xda, 0x03, 0x2e, 0xfb, 0x56, 0x30, 0xf3, 0xf4, 0xc0,
  0x0f, 0x0a, 0xc6, 0xf2, 0xeb, 0xdd, 0x1c, 0x2e, 0xcc, 0x59, 0xad, 0xff,
  0x66, 0x19, 0xa5, 0xa2, 0x16, 0x0a, 0xe8, 0xc9, 0x41, 0x1d, 0x03, 0xcc,
  0xa1, 0x28, 0x42, 0x44, 0xf0, 0x27, 0xe0, 0x13, 0x0f, 0xca, 0x0b, 0xe9,
  0xda, 0xd4, 0xc3, 0x1d, 0xd5, 0xd3, 0xce, 0xd5, 0xe9, 0xbf, 0xf3, 0xa0,
  0xeb, 0xd1, 0x8b, 0x05, 0x03, 0xb8, 0xbc, 0x16, 0xb1, 0xab, 0xcf, 0xe5,
  0xc4, 0x9d, 0xec, 0x8c, 0xaf, 0x1f, 0xf0, 0x0b, 0x10, 0xa4, 0xbf, 0xb4,
  0x0d, 0xa4, 0x25, 0x21, 0xfe, 0xdd, 0x2c, 0x14, 0x14, 0xc9, 0xf9, 0x0a,
  0xab, 0x07, 0xd0, 0x32, 0x21, 0xed, 0x9c, 0x9c, 0xf6, 0xb2, 0x19, 0xea,
  0x0d, 0x3a, 0xe7, 0xf8, 0x34, 0xf4, 0x41, 0xce, 0x09, 0x02, 0x55, 0x12,
  0xe2, 0x22, 0x50, 0x41, 0xdb, 0x52, 0xf6, 0x43, 0xda, 0x00, 0x42, 0xd8,
  0x2e, 0x3b, 0xb2, 0xf7, 0x21, 0xa5, 0x19, 0xa7, 0x68, 0xd0, 0xe9, 0xf3,
  0x26, 0x32, 0x2d, 0xf7, 0xcd, 0xdb, 0xfd, 0x24, 0x1a, 0x1f, 0x2a, 0xff,
  0x2b, 0xf8, 0xf3, 0xf8, 0xe3, 0x23, 0xe3, 0x0c, 0x32, 0x36, 0x36, 0xda,
  0x4e, 0xdb, 0x14, 0xf0, 0xf1, 0x1a, 0xda, 0xfa, 0xe3, 0x00, 0xeb, 0xf9,
  0x04, 0xc7, 0x11, 0xdf, 0x2f, 0x17, 0xf4, 0x34, 0x39, 0x0d, 0x0e, 0xd1,
  0xd5, 0xe5, 0x23, 0x0f, 0xe7, 0x22, 0x2a, 0x3f, 0x1c, 0xfd, 0x3e, 0xd3,
  0xef, 0x31, 0x27, 0x34, 0xdf, 0x4e, 0x27, 0x21, 0xe8, 0xc2, 0xf2, 0x1b,
  0xcf, 0x0c, 0x06, 0x1d, 0x06, 0xd8, 0x11, 0xf4, 0x14, 0xf2, 0xd3, 0x2b,
  0x3a, 0xea, 0xda, 0x2f, 0x45, 0xa7, 0xfe, 0xcd, 0x02, 0x18, 0x2f, 0xd0,
  0xfd, 0xde, 0x0d, 0xf8, 0x23, 0xd3, 0xcc, 0x16, 0xd0, 0x5e, 0x08, 0x4a,
  0xda, 0x38, 0x19, 0xec, 0xdc, 0x24, 0xf9, 0xbd, 0x38, 0x34, 0x2e, 0x26,
  0x45, 0x3e, 0x32, 0xa8, 0x2d, 0x1d, 0xe8, 0x20, 0xe3, 0xce, 0x3e, 0x50,
  0xb3, 0x08, 0xe6, 0xd7, 0x09, 0x28, 0xd5, 0xec, 0x30, 0xd6, 0xe4, 0xd8,
  0x50, 0x00, 0x2e, 0x24, 0xe7, 0xff, 0x14, 0xf9, 0xdc, 0x54, 0x04, 0x01,
  0xca, 0xf0, 0xcb, 0xe9, 0xf1, 0xab, 0x85, 0xe5, 0x1d, 0xc1, 0x9d, 0x9a,
  0xe1, 0xc7, 0xbb, 0xb5, 0xed, 0xe7, 0x87, 0x9c, 0xda, 0x8c, 0xa5, 0xe9,
  0xe2, 0xde, 0x84, 0xd5, 0xe0, 0x9a, 0xd0, 0xf1, 0xcb, 0x1f, 0x05, 0xe2,
  0x05, 0xda, 0x0e, 0xd6, 0x54, 0xad, 0x3e, 0xd8, 0x16, 0xd4, 0x27, 0x50,
  0x2a, 0xfe, 0x3b, 0xf7, 0x09, 0xf2, 0xb7, 0xd3, 0x58, 0x18, 0xbf, 0xb9,
  0x28, 0xaa, 0xfa, 0x0c, 0x21, 0xc8, 0x51, 0x4b, 0x31, 0x28, 0x22, 0x03,
  0xf1, 0xfa, 0x0a, 0x46, 0x2f, 0xe3, 0x5e, 0x5b, 0x36, 0x11, 0x00, 0x27,
  0x30, 0x01, 0x1d, 0xdf, 0x1a, 0xf5, 0x4e, 0x08, 0x11, 0x2d, 0x5d, 0xc1,
  0x63, 0xc6, 0xa6, 0x44, 0x46, 0x38, 0x3f, 0xcc, 0xb6, 0x06, 0x17, 0x13,
  0xf2, 0x13, 0x12, 0x3b, 0x36, 0x0d, 0xe7, 0xe8, 0x4f, 0x40, 0x40, 0x08,
  0xdc, 0x38, 0x10, 0x36, 0xfb, 0x1e, 0x10, 0xb2, 0x57, 0x0a, 0x82, 0x21,
  0xd5, 0x49, 0x01, 0xe0, 0xf0, 0xf6, 0xec, 0xe7, 0x0e, 0x1e, 0xff, 0x08,
  0x06, 0xe8, 0x03, 0x2e, 0x35, 0xe7, 0x03, 0xee, 0x15, 0x1d, 0xd5, 0xe9,
  0x12, 0x0b, 0x39, 0xef, 0x35, 0xff, 0xcf, 0xfc, 0xf8, 0x52, 0xd9, 0x20,
  0xf5, 0x1c, 0xf3, 0xf1, 0xc9, 0x03, 0x13, 0x1e, 0x30, 0x2e, 0x19, 0x2c,
  0x1f, 0xe7, 0xa8, 0xd3, 0xf1, 0x2d, 0x3b, 0xd6, 0xd1, 0xe4, 0xdf, 0x3f,
  0xee, 0x05, 0xc8, 0x1b, 0xf8, 0x1e, 0x43, 0xe9, 0xe9, 0xe1, 0x36, 0x02,
  0xe8, 0xf2, 0x01, 0xe5, 0x06, 0xf2, 0x20, 0xde, 0x9f, 0x44, 0x18, 0x29,
  0x1a, 0x13, 0xe5, 0xe2, 0xfd, 0x04, 0x04, 0x53, 0x48, 0x0a, 0xea, 0x1f,
  0x0e, 0x17, 0x0f, 0xcc, 0x11, 0x08, 0x44, 0x2e, 0xdf, 0x16, 0x3d, 0x45,
  0xcf, 0x39, 0x51, 0x33, 0xbe, 0x42, 0x03, 0x0a, 0x31, 0x0b, 0xd5, 0xa0,
  0x53, 0x11, 0xff, 0xe2, 0x02, 0x3a, 0xfd, 0x52, 0x02, 0x29, 0x2e, 0xfb,
  0xf1, 0xf6, 0x2d, 0x04, 0xf2, 0xf8, 0xf7, 0x4a, 0xd2, 0x3d, 0x34, 0x17,
  0xf0, 0x27, 0xd8, 0x33, 0x09, 0x34, 0x2c, 0xff, 0x56, 0x02, 0x13, 0x14,
  0x17, 0xce, 0x26, 0x0b, 0xe6, 0x4b, 0xf5, 0xf3, 0xcb, 0x00, 0xe7, 0x13,
  0xcb, 0x1d, 0xfd, 0x3c, 0x0f, 0x10, 0x17, 0xf3, 0x23, 0xde, 0x16, 0xd5,
  0xe4, 0xe7, 0x5b, 0xdf, 0xf8, 0x1c, 0x30, 0xec, 0xe7, 0xd4, 0x3b, 0x17,
  0x0c, 0xcf, 0x26, 0xf6, 0xcf, 0xd3, 0x1d, 0xc6, 0xa8, 0x1a, 0xfe, 0xe1,
  0x25, 0xf1, 0xe2, 0xe4, 0xbe, 0x0a, 0xcd, 0xe0, 0x42, 0xd8, 0x15, 0x0c,
  0x16, 0xdc, 0x21, 0x2b, 0xfc, 0x17, 0x31, 0x39, 0xcb, 0x04, 0x1a, 0xe3,
  0x04, 0x4e, 0xd3, 0x18, 0xea, 0xc2, 0xf8, 0xcd, 0xfc, 0xe2, 0x10, 0xd6,
  0x05, 0xd1, 0xd1, 0x1e, 0x38, 0x26, 0x1d, 0xe9, 0xe9, 0x27, 0x2c, 0x06,
  0xd0, 0xe3, 0x14, 0x02, 0xd5, 0x1a, 0x11, 0xf4, 0x11, 0xd8, 0x03, 0x0b,
  0x11, 0xd0, 0xf4, 0xe9, 0xf5, 0x06, 0xf6, 0xec, 0xd3, 0xe9, 0x42, 0xe1,
  0x0f, 0x39, 0xd1, 0xf8, 0x03, 0x39, 0x34, 0xf8, 0x40, 0xf0, 0x12, 0x41,
  0xea, 0x15, 0x45, 0x32, 0x27, 0x1a, 0x16, 0x51, 0x26, 0xf9, 0x2f, 0x08,
  0xdd, 0x3f, 0x34, 0x14, 0xa9, 0xda, 0x12, 0xd1, 0x26, 0x36, 0x18, 0x20,
  0xec, 0x3c, 0x11, 0xbe, 0xd4, 0x12, 0xf1, 0x38, 0x4a, 0x48, 0xfa, 0xee,
  0x00, 0xef, 0x51, 0x1b, 0x18, 0xcc, 0xea, 0xfd, 0xe8, 0xf0, 0x2a, 0x3e,
  0xeb, 0xfb, 0xfe, 0xfe, 0xf7, 0x0b, 0x1c, 0x4d, 0xe4, 0xff, 0x1f, 0xcd,
  0x29, 0xce, 0xec, 0xe6, 0x17, 0xf9, 0xdb, 0xc7, 0xfa, 0x0c, 0xf5, 0x34,
  0x18, 0xb4, 0x38, 0x0d, 0xfa, 0xfd, 0x13, 0x4c, 0xfa, 0x36, 0x16, 0x32,
  0x04, 0x32, 0xa9, 0xce, 0xe5, 0xbc, 0xf9, 0xac, 0x1e, 0xe5, 0xfe, 0x26,
  0x2c, 0x32, 0x15, 0xf5, 0x04, 0xab, 0x26, 0xf8, 0xe3, 0xde, 0x0c, 0x21,
  0x24, 0x1b, 0x4a, 0xf1, 0xdb, 0x1e, 0x1a, 0x20, 0x4f, 0xe7, 0xa1, 0x9b,
  0x4c, 0xca, 0x3c, 0xab, 0x20, 0x0e, 0xf3, 0x48, 0x11, 0x49, 0xff, 0xe4,
  0xfa, 0x00, 0x10, 0x42, 0x09, 0x11, 0x39, 0x40, 0xce, 0x02, 0x12, 0x31,
  0xc2, 0x0a, 0x18, 0xcf, 0x0b, 0x22, 0xe5, 0x16, 0x2e, 0xe1, 0x34, 0xca,
  0x40, 0xeb, 0x38, 0xe9, 0x23, 0xf8, 0xe6, 0x13, 0xf8, 0xd0, 0xd7, 0x39,
  0x21, 0xff, 0xce, 0x24, 0xd9, 0xf1, 0x13, 0xfe, 0xcd, 0xed, 0x37, 0xcf,
  0xff, 0xf2, 0xd0, 0x23, 0x30, 0xff, 0x14, 0x8b, 0xd5, 0xee, 0x05, 0x3d,
  0xf4, 0xf3, 0xdd, 0xe2, 0x0d, 0xed, 0xeb, 0xdc, 0x18, 0x3e, 0x01, 0x12,
  0x1f, 0xea, 0x22, 0xfc, 0x01, 0x0c, 0x21, 0xff, 0x03, 0xe8, 0x1a, 0xec,
  0x12, 0x4f, 0x12, 0x37, 0xd1, 0xec, 0xf3, 0xeb, 0x37, 0xf6, 0x02, 0xc1,
  0xc5, 0xae, 0x15, 0xf2, 0xfc, 0x36, 0x35, 0xdb, 0x2a, 0x37, 0x47, 0x40,
  0xed, 0xdf, 0x11, 0xea, 0xeb, 0xef, 0x0d, 0xe5, 0xf1, 0x39, 0x25, 0xed,
  0x11, 0x21, 0xce, 0xe9, 0xe1, 0x2a, 0xf8, 0x20, 0x0b, 0xba, 0x39, 0xe1,
  0x25, 0xca, 0x56, 0xed, 0xe1, 0x3a, 0x00, 0xdf, 0xc6, 0x24, 0x49, 0x27,
  0x16, 0x2c, 0xde, 0xd4, 0x03, 0xd0, 0x56, 0xd0, 0x4c, 0x18, 0x0e, 0xf0,
  0x0c, 0x47, 0x35, 0x1b, 0x13, 0xad, 0xe7, 0x16, 0x15, 0x01, 0x39, 0xf3,
  0x36, 0x06, 0x38, 0xea, 0xee, 0xe6, 0x07, 0x23, 0x3b, 0x3d, 0xf7, 0xf7,
  0x12, 0x0b, 0x0a, 0x06, 0xe8, 0xcd, 0xe2, 0x58, 0x3b, 0x4a, 0x0a, 0x06,
  0xf7, 0xf8, 0x0e, 0x44, 0xf9, 0xf3, 0x21, 0x37, 0xd8, 0xea, 0xdb, 0x4c,
  0x23, 0x20, 0x00, 0xe5, 0x2b, 0x00, 0x01, 0x06, 0x0b, 0x36, 0x04, 0xd7,
  0x00, 0xc5, 0x00, 0x1f, 0xf1, 0x30, 0x03, 0xe2, 0x2c, 0xa1, 0x3d, 0x01,
  0x42, 0xd6, 0x0a, 0x1c, 0x13, 0x27, 0xd7, 0x0a, 0xcc, 0xc9, 0x36, 0xd9,
  0xfb, 0xc6, 0xa8, 0x10, 0xed, 0xce, 0x2b, 0xcf, 0x22, 0xf4, 0xd7, 0x44,
  0xf8, 0xda, 0x1c, 0x41, 0xdd, 0xef, 0xd0, 0x11, 0x57, 0x15, 0xe1, 0x34,
  0x24, 0xc5, 0x2f, 0x2b, 0x39, 0x1a, 0x4b, 0xc5, 0xe0, 0xf8, 0xb4, 0x07,
  0xf4, 0xec, 0xd7, 0xb0, 0xff, 0xf2, 0xe5, 0xe6, 0xf1, 0xc6, 0xc3, 0xf9,
  0x70, 0x03, 0xdd, 0x1c, 0x42, 0xd8, 0x16, 0xfc, 0x1c, 0x09, 0xc5, 0x0a,
  0xfc, 0x19, 0x2b, 0xe1, 0xcb, 0x21, 0x96, 0xa8, 0xde, 0xda, 0xe8, 0xef,
  0xb9, 0xc8, 0x21, 0x1a, 0xfd, 0x03, 0xfd, 0x36, 0x3a, 0x17, 0x44, 0xd3,
  0x19, 0xcf, 0xda, 0x0d, 0x22, 0x1f, 0x07, 0x0a, 0xde, 0xff, 0x0a, 0x3d,
  0x14, 0x28, 0xf7, 0xe1, 0xfd, 0xde, 0xdc, 0xfc, 0x29, 0xea, 0xd0, 0x14,
  0x00, 0xe4, 0xde, 0x22, 0xe2, 0x14, 0x1c, 0x06, 0xef, 0x0a, 0x30, 0xe4,
  0x1d, 0x37, 0xdd, 0x3c, 0xc0, 0x3e, 0x0a, 0xfa, 0xf5, 0xd7, 0xfe, 0xe8,
  0xef, 0x3f, 0x4b, 0xd0, 0xff, 0xdd, 0x38, 0xd7, 0x0f, 0x03, 0x29, 0xf6,
  0xf9, 0xb0, 0xe4, 0xdc, 0x3b, 0x17, 0x07, 0xe8, 0x01, 0x3a, 0x1a, 0x3d,
  0xf8, 0x1d, 0x45, 0xf6, 0x32, 0x20, 0xc2, 0x3b, 0x01, 0xb1, 0x13, 0x8e,
  0x04, 0xcd, 0xd4, 0x27, 0xf1, 0x12, 0x34, 0x2c, 0x17, 0x0c, 0x26, 0xfc,
  0x59, 0x09, 0xc4, 0xe8, 0x2a, 0x30, 0xea, 0xed, 0x18, 0x34, 0x60, 0xcc,
  0x09, 0x0d, 0x2b, 0x73, 0xf9, 0x43, 0xf5, 0x34, 0x19, 0xd9, 0xe3, 0x11,
  0xe2, 0xe2, 0x13, 0x2b, 0x05, 0x12, 0xd4, 0x05, 0xfa, 0xfb, 0x0d, 0xd5,
  0xd4, 0x08, 0x9d, 0x1e, 0xfa, 0x1b, 0x33, 0x05, 0xbb, 0xc9, 0x27, 0x54,
  0x2d, 0x5e, 0x1c, 0xd3, 0x15, 0x33, 0x25, 0xf4, 0x17, 0x08, 0xbe, 0x42,
  0x10, 0xda, 0xcd, 0x02, 0x52, 0xfc, 0x00, 0xc6, 0x2e, 0x0d, 0xce, 0x1d,
  0x0f, 0xec, 0xd5, 0x1f, 0xff, 0xed, 0x15, 0x06, 0xa1, 0xe2, 0xe5, 0xa8,
  0xdd, 0x2a, 0xe3, 0x0f, 0xbc, 0xc0, 0xed, 0x1b, 0x30, 0x05, 0xf8, 0x13,
  0x1b, 0x15, 0x94, 0xc0, 0x39, 0xc7, 0xf8, 0xce, 0xdc, 0x9e, 0xe1, 0x17,
  0xdd, 0x06, 0x0b, 0x4b, 0xb1, 0xed, 0xdc, 0xe5, 0xc5, 0xd8, 0xf0, 0xc5,
  0x0f, 0xf5, 0xea, 0xeb, 0x60, 0xe1, 0xb2, 0xfd, 0xf6, 0xd1, 0x27, 0x17,
  0x0f, 0xe0, 0xdd, 0xa6, 0xf9, 0xf9, 0xe4, 0x3c, 0xbe, 0xee, 0xf0, 0xa6,
  0x10, 0xaf, 0xbd, 0x13, 0xc8, 0xdf, 0xf3, 0x39, 0x30, 0x13, 0x31, 0x27,
  0x00, 0xc9, 0xf4, 0x2b, 0xe7, 0x03, 0x0b, 0x00, 0x1b, 0xd3, 0xe1, 0xf2,
  0xfc, 0x32, 0x19, 0xce, 0xf0, 0xf6, 0xfe, 0x9e, 0x12, 0x00, 0xf3, 0xe8,
  0xf1, 0xda, 0xf3, 0x53, 0xd6, 0x2a, 0xe0, 0xe1, 0xf4, 0xe2, 0x0c, 0x25,
  0x3b, 0xe2, 0x0c, 0xf3, 0xcf, 0xf1, 0xed, 0xff, 0xc5, 0x33, 0x03, 0xcc,
  0xda, 0xf3, 0xfb, 0xda, 0x00, 0x0a, 0xf8, 0xcc, 0xd6, 0xe9, 0xcd, 0xf3,
  0xf6, 0x46, 0x49, 0xd3, 0x37, 0xef, 0x02, 0x0f, 0x0e, 0x04, 0x00, 0x44,
  0xbf, 0x16, 0xfb, 0xfa, 0x0c, 0x15, 0x22, 0xcf, 0xf4, 0xe4, 0x2b, 0x0e,
  0x49, 0xd9, 0x41, 0x9b, 0x57, 0x10, 0xe8, 0x3e, 0xe1, 0xdc, 0x2e, 0x0c,
  0x37, 0x35, 0x0c, 0x0f, 0x07, 0x2d, 0xdd, 0x00, 0xf9, 0x33, 0x0e, 0xf4,
  0x0e, 0x0e, 0x22, 0xf7, 0x12, 0x49, 0x43, 0x4b, 0x11, 0x6b, 0x1b, 0x46,
  0xdc, 0xda, 0xe2, 0xd7, 0x05, 0xe2, 0xa7, 0x1b, 0x03, 0xdc, 0xa0, 0xa0,
  0xf5, 0x0a, 0xab, 0xdc, 0x2a, 0xeb, 0xe7, 0xd9, 0xf7, 0xbc, 0x02, 0xef,
  0x09, 0xe1, 0x3d, 0x4e, 0xe6, 0x45, 0xeb, 0xc6, 0xee, 0xe2, 0x09, 0xbe,
  0xa4, 0x95, 0xb7, 0x19, 0xd9, 0xc4, 0xf0, 0xff, 0xfd, 0x39, 0xae, 0x04,
  0xc7, 0xcb, 0x98, 0x05, 0xb1, 0xc3, 0xed, 0x01, 0xea, 0xe9, 0xd1, 0xda,
  0xd7, 0xd8, 0x93, 0x0b, 0xf2, 0x05, 0x0b, 0xa9, 0xcb, 0x9a, 0xc1, 0xc5,
  0xd1, 0xd9, 0xee, 0xa8, 0xe5, 0x2a, 0xba, 0x9f, 0xca, 0x92, 0xa8, 0xd6,
  0xa6, 0xe6, 0xca, 0xd2, 0xbb, 0xa0, 0xea, 0xcb, 0xc6, 0xe6, 0x99, 0xf7,
  0xa2, 0xf4, 0x0e, 0xca, 0x99, 0xfc, 0xff, 0x28, 0x5b, 0x43, 0xc0, 0x9b,
  0x05, 0xb7, 0xbd, 0xc5, 0x34, 0xee, 0xf8, 0xf0, 0x00, 0xcf, 0xed, 0x00,
  0x0b, 0xbb, 0x8e, 0x0f, 0x93, 0xa5, 0xd6, 0xef, 0xc0, 0x04, 0x13, 0x23,
  0xfe, 0xfc, 0xea, 0x08, 0x48, 0x3f, 0xcb, 0x1b, 0x47, 0xfe, 0xd7, 0x0c,
  0xe4, 0x2b, 0xed, 0xfa, 0x10, 0x31, 0x0b, 0x27, 0xf2, 0xd2, 0xb1, 0x93,
  0xc0, 0xe9, 0x05, 0x35, 0x09, 0xd0, 0xee, 0x32, 0x15, 0x1a, 0xe4, 0xda,
  0x06, 0x1c, 0x08, 0x08, 0x10, 0x0c, 0x38, 0xee, 0xfd, 0xda, 0xe0, 0xe2,
  0xec, 0xeb, 0x43, 0xdb, 0x1d, 0x21, 0x39, 0xd9, 0xde, 0xff, 0x12, 0x96,
  0x1a, 0xf8, 0xe7, 0x39, 0x26, 0xe8, 0x43, 0xc0, 0x01, 0x12, 0xdc, 0x45,
  0x24, 0xfb, 0x2b, 0x46, 0xd5, 0x3e, 0x2c, 0x3a, 0xf6, 0x15, 0xfb, 0xd8,
  0x2e, 0x46, 0xef, 0xd7, 0x1b, 0xdc, 0x24, 0xcc, 0x06, 0xef, 0xef, 0xe6,
  0x0c, 0x1a, 0xf8, 0xc8, 0x1e, 0x35, 0xd3, 0x1a, 0x5c, 0x1a, 0x9f, 0x0d,
  0xcd, 0xd1, 0xd2, 0x02, 0x3a, 0x02, 0x50, 0x19, 0xdc, 0x1f, 0x6c, 0xff,
  0xf2, 0x48, 0x25, 0x1a, 0x1e, 0xd9, 0xd4, 0xd3, 0xd2, 0xd2, 0xf9, 0xf2,
  0xdc, 0x37, 0xcb, 0xe4, 0xeb, 0xfe, 0xfa, 0x96, 0x04, 0x08, 0xda, 0xd7,
  0xfc, 0xd0, 0x17, 0x2e, 0xe1, 0x0d, 0x4d, 0xf6, 0x8f, 0x0b, 0xa7, 0x2b,
  0xcf, 0x2e, 0xeb, 0xef, 0xa3, 0xb7, 0xaa, 0xd0, 0x04, 0x33, 0xda, 0xfb,
  0xf3, 0x18, 0xb3, 0xaf, 0xc5, 0xfb, 0x99, 0xae, 0xec, 0xf0, 0xbd, 0xef,
  0xe7, 0x04, 0xf1, 0xa1, 0x99, 0xf7, 0xfb, 0x23, 0x0a, 0x1e, 0x00, 0xa2,
  0xc0, 0xd6, 0xff, 0x18, 0xf1, 0x53, 0xae, 0x98, 0xcc, 0x10, 0xf3, 0xa1,
  0x15, 0xc9, 0x9c, 0xeb, 0xf2, 0x98, 0x98, 0x09, 0xc9, 0x9c, 0x44, 0xf6,
  0xea, 0x51, 0xf1, 0x32, 0xad, 0xcd, 0x1b, 0xff, 0x90, 0xc6, 0xb2, 0x1b,
  0xee, 0x53, 0xb0, 0xce, 0x00, 0xc3, 0x23, 0xf0, 0xf7, 0xa3, 0xed, 0xe0,
  0x31, 0xc0, 0xa7, 0xe4, 0xc0, 0xf1, 0x98, 0xb1, 0xdc, 0xa9, 0x8d, 0x31,
  0xa0, 0xfc, 0xeb, 0xc5, 0x00, 0x15, 0xd4, 0x19, 0x6c, 0xda, 0x2e, 0xce,
  0xf1, 0xdb, 0x31, 0xd6, 0x1e, 0x29, 0xd8, 0xe8, 0x0c, 0xc7, 0xc3, 0x27,
  0xe3, 0x0e, 0xa5, 0x92, 0xdb, 0xc7, 0xfb, 0xe2, 0x23, 0xeb, 0x53, 0x22,
  0x25, 0x29, 0x21, 0x28, 0xdb, 0x1c, 0x3e, 0xd7, 0xf2, 0xff, 0xdf, 0x3e,
  0x0e, 0x3f, 0xe2, 0x2c, 0xeb, 0x1e, 0x2c, 0xd3, 0x44, 0x2d, 0x0e, 0x29,
  0xe0, 0xf5, 0x0a, 0xb1, 0xf0, 0xfd, 0x0c, 0xf9, 0xf3, 0x23, 0x31, 0xf5,
  0x29, 0xc5, 0x36, 0x2a, 0xeb, 0xff, 0xe7, 0xe3, 0x06, 0xec, 0x4b, 0xee,
  0xb4, 0xe2, 0x0a, 0xcd, 0x1c, 0x04, 0x37, 0xbe, 0x30, 0x0d, 0x45, 0xdc,
  0x19, 0x24, 0xe5, 0xf8, 0xf1, 0x57, 0xf1, 0xe0, 0xfb, 0x59, 0xd8, 0xeb,
  0x10, 0x32, 0xab, 0x0a, 0x0b, 0xd1, 0x23, 0xf3, 0x3e, 0x44, 0x64, 0x08,
  0xef, 0x35, 0x09, 0x2b, 0x34, 0x67, 0x05, 0x62, 0x33, 0xed, 0x2e, 0xdf,
  0xd0, 0x0f, 0xc0, 0x10, 0x09, 0xf5, 0xce, 0xf9, 0x8b, 0xd2, 0x13, 0xc1,
  0x36, 0xaf, 0x00, 0xda, 0x1d, 0x03, 0x03, 0xfe, 0x1e, 0xe0, 0x0e, 0x13,
  0xd3, 0x1b, 0xc4, 0x43, 0xbb, 0x22, 0xe4, 0xd0, 0x11, 0xdf, 0xd7, 0x28,
  0xf7, 0x64, 0xbd, 0xf1, 0xd3, 0x51, 0xea, 0xdc, 0x07, 0xec, 0xb6, 0xda,
  0xa8, 0xe5, 0xd7, 0x38, 0xf4, 0x21, 0xfb, 0x0b, 0xd8, 0x61, 0xab, 0x24,
  0x14, 0x3a, 0xd3, 0xb6, 0x98, 0xab, 0xf0, 0x11, 0xe3, 0x28, 0xfe, 0xe1,
  0xa0, 0x49, 0x86, 0xfc, 0x1f, 0xb2, 0xc3, 0x01, 0x32, 0xc4, 0x12, 0xee,
  0x02, 0xc4, 0x38, 0x48, 0x8d, 0x3a, 0xad, 0x54, 0xf5, 0xf3, 0x28, 0xd1,
  0xe6, 0xbe, 0xcf, 0x28, 0x08, 0x00, 0xbe, 0xb1, 0xc8, 0xf4, 0x20, 0xb7,
  0x3a, 0xab, 0xcc, 0x97, 0xfa, 0x94, 0xc6, 0x2a, 0xea, 0xbd, 0x8f, 0xa9,
  0xae, 0xd4, 0xe9, 0x6e, 0xa3, 0xfe, 0xd3, 0x27, 0xc2, 0xeb, 0xd3, 0xfa,
  0x13, 0xf3, 0xfb, 0x0e, 0x19, 0xc8, 0x3a, 0x22, 0xcf, 0x3d, 0x1d, 0x20,
  0xd7, 0x1b, 0x08, 0x13, 0x07, 0x38, 0xec, 0xab, 0x14, 0xcc, 0x16, 0xf6,
  0xde, 0xf2, 0x2d, 0x10, 0x33, 0xf9, 0x1c, 0x1d, 0xfe, 0xe2, 0xd2, 0x4a,
  0x26, 0xdc, 0x0a, 0xfd, 0xec, 0x33, 0x2e, 0xf2, 0xdf, 0xee, 0xe0, 0x31,
  0x24, 0xfd, 0xf9, 0xe8, 0xe4, 0x48, 0xec, 0xb6, 0x0d, 0x11, 0xd0, 0xef,
  0x0a, 0x1e, 0x18, 0xd5, 0xcf, 0xc9, 0x42, 0x37, 0xe3, 0xde, 0x01, 0xeb,
  0x14, 0x28, 0x45, 0xec, 0x14, 0xee, 0x1b, 0xe1, 0xfb, 0x06, 0x10, 0xd4,
  0x31, 0xf0, 0x48, 0xac, 0x52, 0xd5, 0x16, 0x0b, 0x4e, 0x0d, 0x4b, 0x3a,
  0x17, 0xf7, 0xd8, 0x2e, 0xfe, 0x25, 0xb3, 0x2e, 0xca, 0xf6, 0x2a, 0xea,
  0x3b, 0x4d, 0xf4, 0xef, 0x33, 0x4d, 0x0a, 0xe9, 0x2f, 0x58, 0x1e, 0x64,
  0x14, 0xcd, 0xbc, 0xe5, 0xe4, 0xd8, 0x12, 0xdc, 0xb7, 0xf9, 0xbf, 0xfd,
  0x0a, 0x0e, 0xfe, 0x1e, 0x35, 0xea, 0x0e, 0xe1, 0xd9, 0x02, 0xf0, 0x21,
  0xec, 0xc1, 0x32, 0xd8, 0xde, 0x2a, 0xf8, 0x0e, 0x04, 0x31, 0x02, 0xd6,
  0x00, 0x0f, 0x19, 0x06, 0x53, 0x5b, 0xc4, 0x1a, 0xfa, 0x13, 0x1c, 0x17,
  0x39, 0xf1, 0xf8, 0xfd, 0x2e, 0xe4, 0x00, 0x2d, 0x01, 0x21, 0x23, 0x26,
  0xf8, 0x52, 0x02, 0xfa, 0x3c, 0x03, 0xa1, 0x2e, 0xb2, 0xb0, 0xd7, 0x11,
  0x97, 0x43, 0x93, 0x07, 0xc4, 0x2a, 0xc5, 0xd2, 0x05, 0xd7, 0xf1, 0x02,
  0x63, 0xef, 0x2e, 0x0b, 0xda, 0xe5, 0x7e, 0x01, 0x9c, 0x51, 0xb8, 0x35,
  0xd2, 0xe0, 0xc6, 0x92, 0xa5, 0xa8, 0xdd, 0xfe, 0x4f, 0x4d, 0xed, 0xe6,
  0xaf, 0xbe, 0x2e, 0xfd, 0x19, 0xad, 0xf9, 0xbe, 0x87, 0xf0, 0xad, 0x23,
  0x04, 0xd9, 0xdd, 0xd3, 0x8e, 0xd8, 0xae, 0x49, 0xae, 0x1a, 0x3d, 0x17,
  0x18, 0xe9, 0x03, 0x2e, 0x70, 0xa7, 0x27, 0x1f, 0x36, 0xb2, 0x1a, 0xf6,
  0xff, 0xff, 0xf7, 0x26, 0xd7, 0x06, 0xeb, 0xe9, 0xd8, 0xf8, 0xf3, 0x09,
  0x24, 0xfa, 0xfc, 0x0f, 0x2b, 0x1b, 0x6f, 0xf2, 0x19, 0x0b, 0xe9, 0x04,
  0x15, 0x24, 0x27, 0x14, 0x20, 0x36, 0x3c, 0xfe, 0xfc, 0xf6, 0x1c, 0x38,
  0x06, 0xed, 0x10, 0x07, 0x4b, 0xe0, 0x0f, 0x1c, 0xe9, 0x3e, 0x42, 0xb7,
  0x22, 0xef, 0x26, 0x21, 0x40, 0xcf, 0xe0, 0x1e, 0xbf, 0xd9, 0x2b, 0xbc,
  0x2e, 0x21, 0x05, 0x42, 0xe4, 0x12, 0xce, 0x3c, 0xb8, 0x0a, 0x07, 0x07,
  0x2b, 0x3b, 0xa1, 0x51, 0xf7, 0x2e, 0x2d, 0xf7, 0x04, 0xc7, 0xfc, 0xf1,
  0xdb, 0xeb, 0x2a, 0x1b, 0x54, 0xca, 0x1b, 0x07, 0x01, 0xee, 0xe8, 0x0a,
  0xce, 0x08, 0x2f, 0xc3, 0x2a, 0xf8, 0xee, 0xf2, 0xca, 0x3d, 0x20, 0x61,
  0xe2, 0xc8, 0x16, 0x0b, 0xc2, 0x21, 0x2f, 0xb3, 0xf3, 0xca, 0x34, 0x37,
  0x51, 0x09, 0xc8, 0xfe, 0x2d, 0xce, 0xa8, 0xd7, 0x2a, 0xf9, 0xe5, 0xb7,
  0x40, 0xc4, 0x17, 0x11, 0xc6, 0xd0, 0xd1, 0x6c, 0x1a, 0xf5, 0xd0, 0xc3,
  0x01, 0xc8, 0x26, 0xd5, 0x14, 0x1c, 0xd9, 0x26, 0x16, 0xdd, 0x1a, 0xfb,
  0xf2, 0x0c, 0x3b, 0xea, 0x34, 0xed, 0xd4, 0x0f, 0xde, 0xfd, 0x3f, 0x39,
  0x0b, 0x25, 0xd7, 0x3e, 0xbb, 0xdd, 0xe7, 0x20, 0xd2, 0xf6, 0xee, 0xe1,
  0x27, 0xf7, 0x3b, 0xe5, 0x38, 0x18, 0xf8, 0xf9, 0x4f, 0xf6, 0xbc, 0x1c,
  0x3b, 0x2d, 0xab, 0x1d, 0x23, 0x02, 0x32, 0x29, 0xd4, 0x47, 0x42, 0x73,
  0xd1, 0x55, 0x28, 0x31, 0xc1, 0x02, 0xc5, 0xc8, 0x1e, 0xc0, 0xfb, 0xdd,
  0x27, 0x55, 0x0e, 0xce, 0x6c, 0xc0, 0xe0, 0xcf, 0xc6, 0x14, 0xc8, 0xc3,
  0x19, 0xfc, 0x0b, 0xce, 0xb6, 0xfd, 0x03, 0xeb, 0xb9, 0x1c, 0xbc, 0x45,
  0xb6, 0xcc, 0xd7, 0x18, 0x23, 0x00, 0xea, 0x17, 0x1b, 0x0e, 0xdb, 0x09,
  0x21, 0x21, 0xc2, 0x00, 0xf3, 0x11, 0xc1, 0x08, 0x23, 0x06, 0xf9, 0xda,
  0x23, 0x23, 0xf6, 0xd0, 0xee, 0xf8, 0xfe, 0x00, 0xd7, 0x39, 0x2c, 0x20,
  0xf7, 0x0d, 0xd0, 0x2a, 0x00, 0xfc, 0xb6, 0xd8, 0xb5, 0xd0, 0xae, 0xf8,
  0x02, 0x16, 0xcc, 0xf5, 0xe5, 0xcc, 0x03, 0x1b, 0xea, 0x16, 0x12, 0xff,
  0x23, 0xc2, 0xea, 0x03, 0xbd, 0x27, 0xd8, 0x0c, 0xd2, 0xc8, 0xd3, 0xec,
  0x31, 0x01, 0xfa, 0x0a, 0xb7, 0xa9, 0xfd, 0xc1, 0xc3, 0xfd, 0xf6, 0xdc,
  0xc5, 0xcf, 0xef, 0xde, 0xdd, 0x1e, 0x1e, 0xea, 0x08, 0xdd, 0xf9, 0x18,
  0x1d, 0xf9, 0x2d, 0x27, 0xd4, 0xd9, 0x1c, 0xeb, 0xe1, 0xfe, 0xfd, 0x1e,
  0xf8, 0xf4, 0xb7, 0xcf, 0x02, 0x18, 0xd1, 0x08, 0x23, 0xf4, 0xf5, 0x19,
  0x28, 0xe5, 0x02, 0xc1, 0x0d, 0x08, 0xc5, 0xa1, 0x19, 0xd3, 0x16, 0xca,
  0xf4, 0xd0, 0xd6, 0x2a, 0x47, 0x1b, 0x01, 0xda, 0xd4, 0x27, 0x19, 0xfe,
  0xf6, 0xdb, 0xeb, 0x1b, 0x37, 0xeb, 0xf4, 0x1c, 0xf3, 0x34, 0x47, 0x3b,
  0xc1, 0xe6, 0xbb, 0xd3, 0xf2, 0x35, 0x06, 0xc6, 0x0f, 0x10, 0x14, 0x0a,
  0x1b, 0xf5, 0xfe, 0xd6, 0x55, 0xc2, 0x0e, 0xc0, 0x33, 0xb9, 0xde, 0x07,
  0xe0, 0xfa, 0x15, 0x33, 0xc6, 0xfd, 0xed, 0x0c, 0xf3, 0x12, 0x13, 0x66,
  0x19, 0xdc, 0x16, 0xee, 0xc8, 0xfe, 0x24, 0xf7, 0x57, 0x60, 0xeb, 0xc0,
  0x02, 0x1e, 0xb0, 0xe8, 0x15, 0xd6, 0xcf, 0xe0, 0x00, 0x0d, 0x56, 0x2f,
  0x01, 0x3b, 0x31, 0x1b, 0xe3, 0x08, 0xe6, 0x17, 0xc8, 0xff, 0xac, 0xc2,
  0xf4, 0xbd, 0x13, 0xdc, 0x9f, 0x01, 0xc9, 0x01, 0x13, 0x12, 0xff, 0xdd,
  0xf7, 0xdf, 0xdf, 0x1f, 0x1b, 0xe0, 0x2a, 0x35, 0x1c, 0xd4, 0x4f, 0xf9,
  0xdd, 0x61, 0x10, 0x0d, 0xf9, 0xec, 0xe1, 0xd7, 0xb7, 0x00, 0xbc, 0x1c,
  0x33, 0xf8, 0xce, 0x0a, 0x0a, 0xdb, 0xb1, 0x10, 0xde, 0x06, 0xb0, 0x0b,
  0xf6, 0xb8, 0xc0, 0xe3, 0xde, 0xff, 0xb4, 0xbd, 0xe1, 0xce, 0xfc, 0xb0,
  0xfb, 0x10, 0x05, 0x20, 0x17, 0xf2, 0xcf, 0xf5, 0x46, 0xe2, 0xde, 0x20,
  0xd6, 0x22, 0xb4, 0xfa, 0xd9, 0x0a, 0x1d, 0x03, 0xed, 0x0e, 0x16, 0x31,
  0xf8, 0xd9, 0x0a, 0xbd, 0x15, 0xcc, 0x21, 0xfc, 0x11, 0xf9, 0x09, 0xb6,
  0xf6, 0xe9, 0xc1, 0xde, 0x34, 0xc7, 0xe2, 0x0e, 0xd1, 0xfb, 0x21, 0x21,
  0x12, 0x11, 0x08, 0x0d, 0x12, 0x21, 0xc1, 0xcb, 0xca, 0x1a, 0xf5, 0x13,
  0xcb, 0xda, 0xe0, 0x30, 0xb8, 0x34, 0xed, 0x04, 0xd5, 0x08, 0xc5, 0xef,
  0xfc, 0x01, 0x04, 0xc2, 0xc1, 0xcc, 0x23, 0x07, 0x2b, 0xfd, 0xde, 0xeb,
  0x13, 0xef, 0xf5, 0xc7, 0xf5, 0x21, 0xce, 0xaf, 0x04, 0x93, 0xe1, 0xa7,
  0xda, 0xd6, 0x16, 0xd8, 0x16, 0xd5, 0xe9, 0x14, 0x50, 0x0d, 0xd2, 0xf0,
  0xbe, 0x30, 0x2a, 0xd0, 0x02, 0x21, 0x37, 0xb2, 0xb1, 0xed, 0xa3, 0x0e,
  0xdc, 0x2d, 0xb7, 0x0e, 0xd2, 0x00, 0xf8, 0xca, 0x17, 0x2c, 0xdb, 0xc5,
  0xe8, 0x14, 0x03, 0xea, 0xda, 0x4e, 0xdb, 0x19, 0x16, 0x01, 0xe3, 0xc6,
  0xdb, 0x1d, 0x03, 0xc3, 0xd1, 0x06, 0x0e, 0x20, 0xee, 0x26, 0xe3, 0xf8,
  0xc8, 0x13, 0x2a, 0x31, 0xdd, 0xcf, 0xc4, 0x23, 0x29, 0x35, 0x1e, 0xc9,
  0x0b, 0x08, 0x4b, 0xec, 0xf8, 0xf3, 0xc0, 0xb2, 0x35, 0x3b, 0xce, 0xf2,
  0x10, 0x56, 0x2a, 0x05, 0x1a, 0x14, 0x08, 0x42, 0xbe, 0xff, 0x03, 0x6b,
  0xbe, 0x01, 0xad, 0xbb, 0xd4, 0xe3, 0xca, 0x17, 0xc4, 0xfa, 0xfc, 0xf3,
  0xb7, 0xfd, 0xd9, 0xbd, 0x17, 0xd7, 0xc2, 0xc8, 0x07, 0x00, 0xce, 0x20,
  0x1f, 0x15, 0x1f, 0x09, 0xcb, 0x09, 0xef, 0x26, 0x2a, 0xca, 0x01, 0xf4,
  0xc5, 0xc2, 0xd1, 0x2a, 0xf4, 0xf0, 0x10, 0x03, 0xb5, 0x12, 0xdd, 0x17,
  0xd2, 0xc8, 0x16, 0xff, 0xc9, 0xe9, 0xf0, 0xfa, 0x1c, 0x16, 0xea, 0xf8,
  0x14, 0x28, 0xc0, 0xcc, 0x11, 0x10, 0x01, 0xdf, 0x1b, 0xc7, 0xc1, 0x23,
  0xd9, 0xc6, 0xd8, 0xf3, 0xd7, 0xe9, 0xfe, 0xf1, 0x0e, 0xf9, 0xac, 0x01,
  0xdf, 0xee, 0x02, 0xdf, 0xc6, 0xb9, 0xf0, 0xe1, 0xfd, 0xef, 0x27, 0x08,
  0x05, 0xfd, 0xcf, 0x1d, 0x0a, 0xed, 0xc8, 0x0b, 0x05, 0x0b, 0xde, 0xd5,
  0xc3, 0xba, 0xca, 0x0e, 0xe3, 0x22, 0xee, 0xed, 0x34, 0xbe, 0xcf, 0xc7,
  0xc4, 0xe5, 0xd7, 0xbb, 0xc7, 0xbd, 0x20, 0x26, 0xf2, 0xc9, 0xda, 0x31,
  0xe2, 0xde, 0xb6, 0x1d, 0xaa, 0xc5, 0xcd, 0x07, 0xf5, 0x08, 0xec, 0x24,
  0x33, 0xda, 0xe2, 0xca, 0xc4, 0xbf, 0x0d, 0x28, 0x10, 0xc2, 0x9e, 0xcc,
  0x09, 0xf7, 0x2f, 0xa6, 0x02, 0x0b, 0xe2, 0xe6, 0x21, 0xcc, 0xe2, 0xc2,
  0x63, 0x23, 0x35, 0xef, 0xc7, 0xf0, 0xef, 0xff, 0xe1, 0x38, 0x46, 0x10,
  0x9e, 0xd2, 0xf9, 0xea, 0x31, 0x08, 0xb2, 0x19, 0xeb, 0xbd, 0x41, 0xc2,
  0x3f, 0xe5, 0x24, 0xd6, 0xce, 0xf6, 0x4c, 0x01, 0x94, 0xf4, 0x2c, 0x23,
  0x24, 0x26, 0xea, 0x1b, 0xe4, 0x20, 0x42, 0x36, 0x16, 0x51, 0xf0, 0xd3,
  0xdd, 0x28, 0xf6, 0x10, 0xfa, 0x31, 0xf8, 0x0e, 0x20, 0x22, 0xdd, 0x2f,
  0x2c, 0x0a, 0x33, 0x19, 0x9e, 0xf9, 0x38, 0x38, 0x07, 0xb3, 0x26, 0x1f,
  0xff, 0x24, 0x00, 0xc5, 0x0d, 0x57, 0x35, 0x16, 0x13, 0x17, 0x1f, 0xfd,
  0x0f, 0x11, 0x50, 0x07, 0xd0, 0x0d, 0xb3, 0xe8, 0xe8, 0x04, 0xed, 0xdb,
  0x97, 0x1a, 0xed, 0xfb, 0xac, 0x2e, 0x0e, 0xf4, 0xf5, 0x36, 0x07, 0xeb,
  0xd9, 0x1d, 0xea, 0xd3, 0x38, 0x05, 0x6e, 0xe9, 0x1a, 0x23, 0x01, 0xb7,
  0xfc, 0xce, 0x9f, 0xeb, 0x1b, 0xe4, 0x22, 0xc0, 0xfa, 0x38, 0xe5, 0x2a,
  0xbe, 0x3f, 0x2a, 0xbe, 0x07, 0xcf, 0xfd, 0xf7, 0xdb, 0x26, 0x14, 0xe8,
  0x02, 0xc6, 0x15, 0x00, 0x06, 0x0d, 0x1c, 0xc1, 0xfd, 0x09, 0x00, 0x13,
  0xce, 0xf6, 0x28, 0x32, 0xe2, 0x31, 0x19, 0xb8, 0xb4, 0xed, 0xef, 0x13,
  0xe6, 0xec, 0x07, 0x21, 0xf2, 0x09, 0x10, 0x16, 0x14, 0xdf, 0x01, 0xe5,
  0xf0, 0x09, 0x12, 0xfb, 0xfb, 0x32, 0x00, 0xd3, 0xc4, 0xfb, 0xde, 0x19,
  0x19, 0x00, 0xcf, 0x16, 0x25, 0xcb, 0xfe, 0x1a, 0x26, 0xb9, 0x39, 0xe9,
  0x15, 0xd6, 0xc5, 0xcc, 0xfd, 0x1e, 0xdc, 0xd1, 0x0f, 0xae, 0x01, 0x10,
  0xdc, 0x24, 0xe7, 0xcf, 0x1d, 0x24, 0xc7, 0x0d, 0xc9, 0xec, 0x1e, 0xe9,
  0xa2, 0x0b, 0x3b, 0x20, 0x2d, 0x2a, 0x1c, 0xf6, 0xae, 0xe5, 0xb5, 0x05,
  0x1a, 0x17, 0xcd, 0xa4, 0xee, 0xc5, 0x1f, 0x8c, 0x12, 0xd4, 0xd0, 0xc6,
  0xde, 0xed, 0x3f, 0xfe, 0x35, 0x15, 0xfb, 0x23, 0x0c, 0xf1, 0x01, 0xeb,
  0x05, 0x1e, 0x2e, 0xeb, 0xd2, 0x31, 0xf8, 0xcb, 0xf6, 0x21, 0xee, 0xb0,
  0x2e, 0xd1, 0xf4, 0xa5, 0x24, 0xfc, 0xcb, 0xec, 0x46, 0x5a, 0x17, 0x35,
  0xc8, 0xff, 0x38, 0xfc, 0x18, 0xee, 0x03, 0xdc, 0xd2, 0xed, 0x2d, 0x56,
  0x58, 0x30, 0x5f, 0xf3, 0xf1, 0x4f, 0x66, 0x0f, 0x1e, 0x01, 0x26, 0x55,
  0x13, 0x38, 0x29, 0xe2, 0x29, 0x36, 0x1d, 0xce, 0xa6, 0x53, 0x61, 0x04,
  0x01, 0xaf, 0x05, 0xe9, 0xcb, 0x0a, 0x6d, 0xdd, 0x55, 0xf8, 0x2c, 0xfe,
  0x20, 0x09, 0xd4, 0x22, 0x4d, 0x19, 0x1d, 0x4f, 0xf5, 0x07, 0xcb, 0x20,
  0x2a, 0x5c, 0x4f, 0xdf, 0xd4, 0xd3, 0x28, 0x17, 0xc9, 0x1b, 0x4a, 0x4d,
  0xcb, 0x10, 0xe8, 0x0f, 0xa9, 0x4b, 0xfc, 0xfd, 0x26, 0x19, 0x15, 0x22,
  0x56, 0x1e, 0x4b, 0xc9, 0x1f, 0xdf, 0x00, 0xff, 0x27, 0xd8, 0xda, 0x30,
  0xb1, 0x0c, 0xcd, 0x32, 0xcf, 0x38, 0x29, 0x2a, 0x18, 0x29, 0xd2, 0xc3,
  0xea, 0xfb, 0x13, 0xd7, 0xca, 0x2b, 0x1f, 0xdb, 0xe9, 0xee, 0xfc, 0x9d,
  0x25, 0xfa, 0xeb, 0x0d, 0x25, 0xfd, 0xea, 0x2e, 0xda, 0x30, 0x28, 0xd7,
  0xe1, 0xd0, 0xe8, 0x2b, 0x32, 0x0a, 0x09, 0xf1, 0x1b, 0xd6, 0xdf, 0xd0,
  0xf1, 0xd6, 0xe8, 0xed, 0xe9, 0x08, 0x1a, 0xe0, 0xc7, 0x0b, 0x13, 0xc8,
  0xe4, 0xbf, 0x28, 0xaa, 0x1c, 0xcb, 0x11, 0x1f, 0xff, 0xe3, 0x20, 0x1a,
  0x14, 0x0a, 0x0f, 0xf9, 0xac, 0x04, 0x2b, 0xd9, 0xf3, 0xb6, 0xe6, 0x9a,
  0xdf, 0xf8, 0xc9, 0x2e, 0x1d, 0xfd, 0xde, 0xe0, 0xf7, 0x17, 0xa6, 0x00,
  0xc4, 0xb4, 0xfa, 0xd9, 0xf7, 0xe3, 0x29, 0x37, 0x22, 0x02, 0x22, 0x18,
  0xa6, 0xd5, 0xff, 0x1c, 0x06, 0x0a, 0x92, 0xa6, 0x10, 0xb5, 0xdd, 0x93,
  0xf8, 0xfb, 0x31, 0xf0, 0x05, 0x0f, 0xfe, 0x08, 0x25, 0xb2, 0xef, 0x1e,
  0xd5, 0xc8, 0x03, 0x32, 0xdf, 0xff, 0x20, 0xff, 0xe3, 0xfe, 0xe2, 0xf2,
  0x2f, 0x1e, 0xbb, 0x07, 0x24, 0x9d, 0x1b, 0xea, 0x48, 0x27, 0x18, 0x04,
  0xee, 0x5b, 0x0a, 0xf6, 0xc2, 0x51, 0x41, 0x47, 0x15, 0x60, 0x91, 0xef,
  0x08, 0x46, 0xbb, 0x21, 0x0c, 0x59, 0x4e, 0xca, 0xf3, 0x4a, 0x3a, 0x24,
  0x15, 0x1b, 0x51, 0x10, 0x2e, 0xe4, 0x12, 0x97, 0xef, 0x11, 0xea, 0xbe,
  0xcd, 0xf2, 0x29, 0x30, 0x63, 0xb6, 0x0d, 0x2e, 0xe0, 0x1a, 0x20, 0xcc,
  0x50, 0x07, 0xea, 0x08, 0x0f, 0xd8, 0xed, 0x50, 0xf9, 0x08, 0x1a, 0x3b,
  0x0d, 0x27, 0x41, 0x61, 0x6a, 0x13, 0x14, 0xe9, 0x1c, 0x96, 0x3f, 0x0c,
  0x17, 0x39, 0x04, 0x24, 0x31, 0x36, 0x1f, 0x25, 0xb9, 0x44, 0x25, 0x28,
  0xeb, 0x5b, 0x07, 0x9f, 0x68, 0xcd, 0x11, 0xb4, 0x0d, 0xd0, 0xb9, 0xf6,
  0x1f, 0x16, 0x08, 0xc7, 0xca, 0x03, 0xdb, 0x3a, 0x09, 0x0b, 0xe1, 0x02,
  0x33, 0xfa, 0x00, 0x0a, 0xad, 0x11, 0x30, 0x2e, 0x05, 0xdb, 0x18, 0x01,
  0xda, 0xff, 0x02, 0xea, 0x09, 0xcb, 0x1a, 0xe8, 0xf9, 0x0c, 0xe0, 0xf1,
  0x06, 0xf1, 0x08, 0x1f, 0xf1, 0x1d, 0xcf, 0xd1, 0xe2, 0xf7, 0xf7, 0xeb,
  0xd0, 0x0b, 0xe6, 0xe6, 0xf6, 0x19, 0xfc, 0x0b, 0x25, 0xeb, 0xd8, 0xe5,
  0x11, 0xea, 0x13, 0x02, 0xd8, 0xd8, 0xc2, 0xaf, 0xc2, 0xc5, 0xdc, 0x24,
  0xd5, 0xae, 0xed, 0xc4, 0xc0, 0xef, 0xda, 0xe9, 0xd5, 0xb4, 0xd3, 0xde,
  0x1e, 0xc6, 0x1e, 0x9b, 0xd4, 0xcc, 0xf5, 0xec, 0x02, 0x32, 0x13, 0xdb,
  0x31, 0x29, 0xa3, 0x15, 0x09, 0xc7, 0xe0, 0x1d, 0x9a, 0x06, 0xea, 0x30,
  0xdc, 0x16, 0x15, 0x2c, 0xd4, 0x06, 0xf3, 0x0e, 0x14, 0xda, 0xe9, 0xcc,
  0xd0, 0xa9, 0xe5, 0xe6, 0x0a, 0x01, 0x15, 0xf6, 0x53, 0x46, 0x2f, 0xe5,
  0x64, 0x05, 0x57, 0x51, 0xa3, 0x11, 0x2f, 0x3f, 0xdb, 0x1d, 0x0a, 0x5b,
  0xe1, 0x12, 0xc5, 0xc9, 0xf8, 0x14, 0x05, 0x2f, 0x64, 0xee, 0xf3, 0xd7,
  0x37, 0xe0, 0x13, 0x0e, 0x24, 0x1d, 0x16, 0xfc, 0x9a, 0x1c, 0x38, 0x36,
  0x28, 0x09, 0xaa, 0x2d, 0x10, 0x00, 0xa4, 0x0e, 0x48, 0xff, 0x38, 0x2b,
  0xcf, 0x3c, 0x3d, 0x78, 0xf8, 0x56, 0x23, 0x50, 0x33, 0xe8, 0x2f, 0xda,
  0xdc, 0xc2, 0xd4, 0xf5, 0x5a, 0xae, 0x16, 0xf7, 0xfb, 0xb4, 0x36, 0xbc,
  0x0d, 0xcc, 0xfb, 0x0f, 0x13, 0xc2, 0x15, 0x09, 0x3b, 0xc4, 0x9c, 0x56,
  0xf7, 0xf5, 0xed, 0xf4, 0xcf, 0xca, 0xd8, 0x55, 0x0d, 0x3b, 0x16, 0xf1,
  0x1d, 0xdf, 0xfd, 0x37, 0x3e, 0xd1, 0xf8, 0x04, 0xc8, 0x21, 0x43, 0x0f,
  0x0e, 0x05, 0xf3, 0xe6, 0x0f, 0xf2, 0xd3, 0xb8, 0x16, 0xd5, 0x11, 0xc0,
  0x0d, 0x08, 0x2d, 0xee, 0x04, 0xfd, 0x1b, 0xdf, 0xf6, 0xe2, 0xff, 0x07,
  0x0a, 0x06, 0xd5, 0x3c, 0xc6, 0x17, 0x1a, 0xe5, 0x06, 0x0a, 0x00, 0x21,
  0x35, 0x32, 0x20, 0x21, 0x08, 0xaf, 0x37, 0xd4, 0x11, 0x08, 0xf4, 0xeb,
  0x09, 0xea, 0x0f, 0xc3, 0x24, 0xec, 0x32, 0x2e, 0x06, 0x32, 0x1b, 0x40,
  0x2f, 0xf2, 0xf5, 0x45, 0xe7, 0x1f, 0x27, 0xfe, 0xe3, 0x35, 0xe9, 0xf5,
  0x24, 0xf7, 0x09, 0xfa, 0x09, 0x16, 0x32, 0x11, 0xe5, 0xdc, 0xc8, 0xda,
  0x00, 0x11, 0x1c, 0x16, 0x07, 0xb9, 0x2e, 0x10, 0xc8, 0xe4, 0x11, 0x12,
  0xdd, 0xd9, 0x29, 0x23, 0x03, 0xda, 0xc3, 0xe4, 0xcd, 0xec, 0xea, 0xe0,
  0xdd, 0xd8, 0xd8, 0xd7, 0x07, 0xef, 0xf1, 0xf7, 0xc8, 0xcb, 0x0a, 0xea,
  0x05, 0xcf, 0x0a, 0x0e, 0xf5, 0x0d, 0x0b, 0x4a, 0xca, 0xd7, 0xd6, 0x24,
  0xea, 0xe0, 0xfc, 0xc0, 0xc9, 0xad, 0x12, 0xa0, 0xce, 0xd1, 0x13, 0x18,
  0x28, 0x45, 0x4c, 0xbd, 0x67, 0xea, 0x10, 0xfb, 0x14, 0xe8, 0x56, 0x36,
  0x14, 0x0c, 0x61, 0x22, 0x28, 0xef, 0x07, 0x20, 0x46, 0x46, 0xef, 0x21,
  0x13, 0xa4, 0x3f, 0xd0, 0x08, 0xeb, 0xef, 0x09, 0x4b, 0x60, 0x56, 0x1d,
  0xd8, 0xef, 0x3f, 0xe5, 0x18, 0xf9, 0xd1, 0x3b, 0x05, 0xfe, 0xb6, 0x12,
  0x67, 0xfb, 0x35, 0xf0, 0xd8, 0x0b, 0x3a, 0x0c, 0xe0, 0x47, 0x4a, 0x53,
  0x56, 0x01, 0xa4, 0xac, 0xf4, 0xce, 0xc7, 0x10, 0x48, 0xcf, 0xfc, 0xa5,
  0x15, 0xa6, 0x0a, 0x03, 0xeb, 0xdc, 0xb9, 0xc9, 0xdd, 0xc3, 0xfb, 0x14,
  0xdb, 0xc6, 0x8f, 0xff, 0xbf, 0xe3, 0xbc, 0x30, 0xda, 0xf1, 0x60, 0x0f,
  0x29, 0xf3, 0xe4, 0xfe, 0xfa, 0xcd, 0x0e, 0x3d, 0x62, 0xa3, 0x58, 0x23,
  0x1a, 0x22, 0x1a, 0xf9, 0xe2, 0x1b, 0x3c, 0xe0, 0x3a, 0xe2, 0xb4, 0x13,
  0xfd, 0xed, 0xf9, 0xff, 0xf3, 0xda, 0xf7, 0x30, 0x44, 0x35, 0xe4, 0xc7,
  0xd0, 0x0c, 0x46, 0x10, 0x44, 0x0e, 0x10, 0x4f, 0xd6, 0x27, 0x42, 0x30,
  0xf7, 0x4d, 0x27, 0xf0, 0xe1, 0x20, 0x54, 0xe2, 0x45, 0xf6, 0x50, 0xbe,
  0x43, 0x34, 0xe7, 0xd5, 0xd1, 0xdb, 0x40, 0xeb, 0xe8, 0x22, 0x4a, 0x45,
  0xc0, 0xed, 0x2a, 0x02, 0x05, 0x1e, 0x3d, 0x12, 0x2a, 0x01, 0x1b, 0x36,
