/*
 * Copyright (c) 2026 EdgeImpulse Inc.
 *
 * Generated by Edge Impulse and licensed under the applicable Edge Impulse
 * Terms of Service. Community and Professional Terms of Service
 * (https://edgeimpulse.com/legal/terms-of-service) or Enterprise Terms of
 * Service (https://edgeimpulse.com/legal/enterprise-terms-of-service),
 * according to your product plan subscription (the “License”).
 *
 * This software, documentation and other associated files (collectively referred
 * to as the “Software”) is a single SDK variation generated by the Edge Impulse
 * platform and requires an active paid Edge Impulse subscription to use this
 * Software for any purpose.
 *
 * You may NOT use this Software unless you have an active Edge Impulse subscription
 * that meets the eligibility requirements for the applicable License, subject to
 * your full and continued compliance with the terms and conditions of the License,
 * including without limitation any usage restrictions under the applicable License.
 *
 * If you do not have an active Edge Impulse product plan subscription, or if use
 * of this Software exceeds the usage limitations of your Edge Impulse product plan
 * subscription, you are not permitted to use this Software and must immediately
 * delete and erase all copies of this Software within your control or possession.
 * Edge Impulse reserves all rights and remedies available to enforce its rights.
 *
 * Unless required by applicable law or agreed to in writing, the Software is
 * distributed on an "AS IS" BASIS, WITHOUT WARRANTIES OR CONDITIONS OF ANY KIND,
 * either express or implied. See the License for the specific language governing
 * permissions, disclaimers and limitations under the License.
 */

#ifndef _EI_CLASSIFIER_TFLITE_LEARN_1001478_6_H_
#define _EI_CLASSIFIER_TFLITE_LEARN_1001478_6_H_

#define EI_CLASSIFIER_TFLITE_LEARN_1001478_6_ARENA_SIZE     2982
const size_t tflite_learn_1001478_6_arena_size = 2982;

#if defined __GNUC__
#define ALIGN(X) __attribute__((aligned(X)))
#elif defined _MSC_VER
#define ALIGN(X) __declspec(align(X))
#elif defined __TASKING__
#define ALIGN(X) __align(X)
#else
#define ALIGN(X)
#endif

#if defined(EI_MODEL_SECTION) && (defined(__GNUC__) || defined(__clang__))
#define STRINGIZE(x) #x
#define STRINGIZE_VALUE_OF(x) STRINGIZE(x)
#define MODEL_SECTION(X) __attribute__((section(STRINGIZE_VALUE_OF(X))))
#else
#define MODEL_SECTION(X)
#endif


MODEL_SECTION(EI_MODEL_SECTION) ALIGN(16) const unsigned char tflite_learn_1001478_6[] = {
  0x1c, 0x00, 0x00, 0x00, 0x54, 0x46, 0x4c, 0x33, 0x14, 0x00, 0x20, 0x00,
  0x1c, 0x00, 0x18, 0x00, 0x14, 0x00, 0x10, 0x00, 0x0c, 0x00, 0x00, 0x00,
  0x08, 0x00, 0x04, 0x00, 0x14, 0x00, 0x00, 0x00, 0x1c, 0x00, 0x00, 0x00,
  0x8c, 0x00, 0x00, 0x00, 0x0c, 0x01, 0x00, 0x00, 0xd0, 0x06, 0x00, 0x00,
  0xe0, 0x06, 0x00, 0x00, 0x4c, 0x0d, 0x00, 0x00, 0x03, 0x00, 0x00, 0x00,
  0x01, 0x00, 0x00, 0x00, 0x10, 0x00, 0x00, 0x00, 0x00, 0x00, 0x0a, 0x00,
  0x10, 0x00, 0x0c, 0x00, 0x08, 0x00, 0x04, 0x00, 0x0a, 0x00, 0x00, 0x00,
  0x0c, 0x00, 0x00, 0x00, 0x1c, 0x00, 0x00, 0x00, 0x3c, 0x00, 0x00, 0x00,
  0x0f, 0x00, 0x00, 0x00, 0x73, 0x65, 0x72, 0x76, 0x69, 0x6e, 0x67, 0x5f,
  0x64, 0x65, 0x66, 0x61, 0x75, 0x6c, 0x74, 0x00, 0x01, 0x00, 0x00, 0x00,
  0x04, 0x00, 0x00, 0x00, 0x74, 0xff, 0xff, 0xff, 0x0a, 0x00, 0x00, 0x00,
  0x04, 0x00, 0x00, 0x00, 0x08, 0x00, 0x00, 0x00, 0x6f, 0x75, 0x74, 0x70,
  0x75, 0x74, 0x5f, 0x30, 0x00, 0x00, 0x00, 0x00, 0x01, 0x00, 0x00, 0x00,
  0x04, 0x00, 0x00, 0x00, 0x16, 0xf9, 0xff, 0xff, 0x04, 0x00, 0x00, 0x00,
  0x01, 0x00, 0x00, 0x00, 0x78, 0x00, 0x00, 0x00, 0x03, 0x00, 0x00, 0x00,
  0x5c, 0x00, 0x00, 0x00, 0x2c, 0x00, 0x00, 0x00, 0x04, 0x00, 0x00, 0x00,
  0xb8, 0xff, 0xff, 0xff, 0x0e, 0x00, 0x00, 0x00, 0x04, 0x00, 0x00, 0x00,
  0x13, 0x00, 0x00, 0x00, 0x43, 0x4f, 0x4e, 0x56, 0x45, 0x52, 0x53, 0x49,
  0x4f, 0x4e, 0x5f, 0x4d, 0x45, 0x54, 0x41, 0x44, 0x41, 0x54, 0x41, 0x00,
  0xdc, 0xff, 0xff, 0xff, 0x0d, 0x00, 0x00, 0x00, 0x04, 0x00, 0x00, 0x00,
  0x13, 0x00, 0x00, 0x00, 0x6d, 0x69, 0x6e, 0x5f, 0x72, 0x75, 0x6e, 0x74,
  0x69, 0x6d, 0x65, 0x5f, 0x76, 0x65, 0x72, 0x73, 0x69, 0x6f, 0x6e, 0x00,
  0x08, 0x00, 0x0c, 0x00, 0x08, 0x00, 0x04, 0x00, 0x08, 0x00, 0x00, 0x00,
  0x0c, 0x00, 0x00, 0x00, 0x04, 0x00, 0x00, 0x00, 0x13, 0x00, 0x00, 0x00,
  0x6d, 0x69, 0x6e, 0x5f, 0x72, 0x75, 0x6e, 0x74, 0x69, 0x6d, 0x65, 0x5f,
  0x76, 0x65, 0x72, 0x73, 0x69, 0x6f, 0x6e, 0x00, 0x0f, 0x00, 0x00, 0x00,
  0xc0, 0x05, 0x00, 0x00, 0xb8, 0x05, 0x00, 0x00, 0x98, 0x05, 0x00, 0x00,
  0x60, 0x05, 0x00, 0x00, 0x28, 0x05, 0x00, 0x00, 0x50, 0x04, 0x00, 0x00,
  0xf0, 0x03, 0x00, 0x00, 0xd4, 0x00, 0x00, 0x00, 0xcc, 0x00, 0x00, 0x00,
  0xc4, 0x00, 0x00, 0x00, 0xbc, 0x00, 0x00, 0x00, 0xb4, 0x00, 0x00, 0x00,
  0x94, 0x00, 0x00, 0x00, 0x74, 0x00, 0x00, 0x00, 0x04, 0x00, 0x00, 0x00,
  0xea, 0xf9, 0xff, 0xff, 0x04, 0x00, 0x00, 0x00, 0x60, 0x00, 0x00, 0x00,
  0x0c, 0x00, 0x00, 0x00, 0x08, 0x00, 0x0e, 0x00, 0x08, 0x00, 0x04, 0x00,
  0x08, 0x00, 0x00, 0x00, 0x10, 0x00, 0x00, 0x00, 0x28, 0x00, 0x00, 0x00,
  0x00, 0x00, 0x06, 0x00, 0x08, 0x00, 0x04, 0x00, 0x06, 0x00, 0x00, 0x00,
  0x04, 0x00, 0x00, 0x00, 0x01, 0x00, 0x00, 0x00, 0xeb, 0x03, 0x00, 0x00,
  0x0c, 0x00, 0x18, 0x00, 0x14, 0x00, 0x10, 0x00, 0x0c, 0x00, 0x04, 0x00,
  0x0c, 0x00, 0x00, 0x00, 0x6e, 0xfe, 0x65, 0x5a, 0x1b, 0x86, 0x81, 0x24,
  0x03, 0x00, 0x00, 0x00, 0x02, 0x00, 0x00, 0x00, 0x04, 0x00, 0x00, 0x00,
  0x06, 0x00, 0x00, 0x00, 0x32, 0x2e, 0x31, 0x39, 0x2e, 0x31, 0x00, 0x00,
  0x56, 0xfa, 0xff, 0xff, 0x04, 0x00, 0x00, 0x00, 0x10, 0x00, 0x00, 0x00,
  0x00, 0x00, 0x00, 0x00, 0x00, 0x00, 0x00, 0x00, 0x00, 0x00, 0x00, 0x00,
  0x00, 0x00, 0x00, 0x00, 0x72, 0xfa, 0xff, 0xff, 0x04, 0x00, 0x00, 0x00,
  0x10, 0x00, 0x00, 0x00, 0x31, 0x2e, 0x31, 0x34, 0x2e, 0x30, 0x00, 0x00,
  0x00, 0x00, 0x00, 0x00, 0x00, 0x00, 0x00, 0x00, 0x5c, 0xfa, 0xff, 0xff,
  0x60, 0xfa, 0xff, 0xff, 0x64, 0xfa, 0xff, 0xff, 0x68, 0xfa, 0xff, 0xff,
  0x9e, 0xfa, 0xff, 0xff, 0x04, 0x00, 0x00, 0x00, 0x0c, 0x03, 0x00, 0x00,
  0xe8, 0x0e, 0xe2, 0x6a, 0x32, 0x46, 0x33, 0xdc, 0x35, 0xcd, 0x13, 0x36,
  0xc6, 0xa4, 0xf7, 0x45, 0x2d, 0x4e, 0xe9, 0xec, 0x63, 0xff, 0x5d, 0x21,
  0xbd, 0x4b, 0xb8, 0xe3, 0xaf, 0xbb, 0x14, 0x2c, 0x4a, 0xca, 0xc0, 0x3f,
  0xdb, 0x57, 0x0f, 0x9e, 0xf7, 0x4b, 0x1d, 0x04, 0x09, 0x0c, 0x0a, 0x17,
  0x44, 0xb3, 0x17, 0xff, 0xfd, 0x32, 0xb6, 0x43, 0x25, 0x48, 0xb5, 0xdc,
  0xe7, 0x37, 0xd8, 0x16, 0x16, 0xec, 0x42, 0xe2, 0xe7, 0x14, 0x6d, 0x63,
  0x67, 0x46, 0xe8, 0xb7, 0xf9, 0x1c, 0x24, 0xed, 0xa5, 0xc6, 0x2a, 0xc8,
  0x40, 0x53, 0x5c, 0xfb, 0xbe, 0x0f, 0xbd, 0x18, 0xcc, 0x3a, 0x28, 0x3e,
  0x04, 0x2a, 0x58, 0xa1, 0x2e, 0xb6, 0x0b, 0xe7, 0x3f, 0x2b, 0xca, 0x99,
  0xb9, 0x25, 0x1a, 0xad, 0xe0, 0xd7, 0xa9, 0xef, 0x27, 0x8b, 0x2a, 0xc8,
  0x23, 0xe1, 0x4b, 0x1d, 0x7f, 0x53, 0xd8, 0x6f, 0x6d, 0x4c, 0x14, 0x34,
  0xf1, 0xab, 0xbc, 0x2b, 0x4f, 0xd3, 0x2d, 0xd3, 0xf2, 0x4d, 0x3d, 0x91,
  0x46, 0x30, 0x13, 0xb4, 0xf8, 0x20, 0xb3, 0x1c, 0xfc, 0x59, 0xaa, 0x12,
  0x6e, 0x1f, 0x15, 0xcd, 0xc4, 0xd2, 0x62, 0x03, 0xec, 0x51, 0x00, 0x2c,
  0xe0, 0xfa, 0xaf, 0x40, 0x1f, 0x23, 0x10, 0x03, 0x0d, 0x6a, 0x04, 0x09,
  0xfc, 0x1c, 0x60, 0x3f, 0xb1, 0xb7, 0x2d, 0xcf, 0x5b, 0xc8, 0xee, 0xe0,
  0xf2, 0xba, 0x23, 0xd0, 0x2b, 0x2c, 0xe0, 0xcb, 0x94, 0xe5, 0x39, 0xbb,
  0xf3, 0x8c, 0xbe, 0x86, 0x17, 0x0b, 0x02, 0x98, 0x10, 0xcb, 0xf1, 0xa8,
  0xa2, 0xe5, 0xc0, 0x32, 0xd8, 0x07, 0xda, 0xdf, 0x58, 0xe7, 0xe3, 0x36,
  0xb3, 0x01, 0x96, 0x29, 0xb3, 0x0d, 0x4e, 0xf7, 0xd8, 0xe7, 0xdd, 0xc0,
  0xf9, 0x59, 0xf7, 0x1f, 0x15, 0x12, 0x1a, 0x54, 0x1b, 0xd9, 0xf2, 0xe8,
  0x74, 0x60, 0xee, 0x2b, 0xef, 0x54, 0xf5, 0x10, 0x7c, 0xc7, 0x3a, 0x2c,
  0x43, 0xc8, 0x1d, 0x0f, 0xd2, 0x4f, 0xc5, 0x3e, 0xce, 0x20, 0xc3, 0x00,
  0x6f, 0x6e, 0x15, 0x18, 0x1f, 0xdd, 0x45, 0xe3, 0x4f, 0xd6, 0x05, 0xb9,
  0x98, 0xe4, 0xc9, 0xb7, 0x50, 0x3e, 0xb7, 0xc0, 0xed, 0xd9, 0x45, 0xc8,
  0x2c, 0x92, 0xe2, 0xfe, 0x49, 0x0b, 0xa6, 0xd4, 0x9f, 0xe8, 0x0f, 0x38,
  0x4d, 0x42, 0x32, 0xf3, 0xb5, 0x44, 0xff, 0xd6, 0x04, 0xfd, 0x11, 0x45,
  0x42, 0xfc, 0x08, 0xcc, 0x29, 0xd7, 0x6f, 0x27, 0x66, 0x4e, 0x64, 0x39,
  0x4e, 0x4f, 0x5a, 0x0d, 0x44, 0xb3, 0x35, 0xb5, 0xfc, 0x09, 0xc0, 0xf3,
  0xbd, 0x5a, 0xd0, 0x89, 0x56, 0x84, 0x28, 0xed, 0x49, 0xb2, 0xfe, 0xcd,
  0x9d, 0xa9, 0xb9, 0xa4, 0xbf, 0xd0, 0x29, 0x13, 0x4d, 0x30, 0xb5, 0xd9,
  0x2c, 0xfe, 0x3a, 0x3f, 0x24, 0xe1, 0x3a, 0xce, 0x40, 0xd3, 0x10, 0xe9,
  0x25, 0x67, 0x3e, 0x5f, 0x62, 0x13, 0x34, 0x2a, 0x17, 0x9b, 0x9c, 0xf1,
  0x51, 0x29, 0x14, 0x36, 0xd3, 0x33, 0x32, 0x96, 0x3e, 0xc6, 0xfa, 0xef,
  0x20, 0x1f, 0xb9, 0x32, 0xb1, 0x4b, 0x4c, 0xf0, 0xa8, 0xf9, 0x27, 0x2d,
  0x86, 0xa6, 0xb0, 0xe8, 0x5e, 0x54, 0xec, 0xbd, 0xbd, 0x0b, 0x16, 0x5a,
  0xf3, 0xc5, 0xcb, 0x79, 0xfb, 0x62, 0x09, 0x6e, 0x73, 0x59, 0x63, 0xde,
  0x34, 0xca, 0xc8, 0x6e, 0x1f, 0x08, 0x08, 0x74, 0x20, 0x38, 0x40, 0x4a,
  0x48, 0x41, 0x22, 0xf3, 0xf0, 0x07, 0xe0, 0x21, 0xf6, 0xcb, 0x22, 0x24,
  0xc3, 0x9c, 0x19, 0xb6, 0x16, 0x8a, 0xa5, 0x84, 0x96, 0x0f, 0xd3, 0x90,
  0xf8, 0x1e, 0xd0, 0x4a, 0x00, 0xe2, 0x22, 0xbb, 0x0b, 0x11, 0xa4, 0x17,
  0x0e, 0xc4, 0xf5, 0xb3, 0x68, 0xd7, 0xe2, 0xf1, 0x83, 0x2e, 0x15, 0x16,
  0x24, 0x9e, 0x8a, 0x27, 0x95, 0xde, 0xf7, 0x57, 0x44, 0x9a, 0x3f, 0xdd,
  0x00, 0xfb, 0x05, 0x3f, 0x2e, 0xf2, 0xbd, 0xae, 0x01, 0xb8, 0xdf, 0xbe,
  0xbc, 0x01, 0xe5, 0xdb, 0xa8, 0xd9, 0x3d, 0x06, 0x17, 0x25, 0xb7, 0xca,
  0xb2, 0xfa, 0x1a, 0x2c, 0xf9, 0x49, 0x60, 0xbe, 0xc7, 0x16, 0x06, 0xd3,
  0xe1, 0x29, 0x35, 0x28, 0x62, 0xae, 0xba, 0x69, 0xa9, 0xd7, 0xb8, 0x13,
  0x41, 0xc4, 0x5a, 0x66, 0xde, 0x50, 0xb7, 0xd6, 0xfe, 0xbe, 0x3f, 0xf0,
  0x56, 0xd8, 0xe0, 0x42, 0xfb, 0xcc, 0xc0, 0x1f, 0x53, 0xf7, 0x37, 0xc3,
  0x94, 0xa7, 0xfe, 0xdc, 0xf7, 0x0b, 0x0b, 0xe6, 0x10, 0xb5, 0x22, 0x26,
  0x4f, 0xf3, 0x0b, 0x04, 0x1c, 0x94, 0x33, 0x9c, 0x13, 0x00, 0xe9, 0xcb,
  0xc9, 0x02, 0xb7, 0x1f, 0xc2, 0xc2, 0x13, 0xdd, 0xf8, 0xe6, 0x91, 0xfc,
  0xf9, 0xb3, 0xf0, 0xf1, 0x4e, 0xd6, 0xcc, 0xaa, 0x0f, 0x9c, 0x9f, 0xd1,
  0x05, 0x26, 0xd7, 0x27, 0xb6, 0xd8, 0x1b, 0xd5, 0xaa, 0xc1, 0x19, 0xcd,
  0x1b, 0xd9, 0xea, 0x3d, 0xbc, 0x42, 0x1e, 0xfb, 0x45, 0xc2, 0xdc, 0xc6,
  0x10, 0xa3, 0xc8, 0xf5, 0x20, 0x69, 0x29, 0x2c, 0xd6, 0xe3, 0x56, 0x2b,
  0x03, 0xf5, 0x69, 0xeb, 0x44, 0xaf, 0xef, 0xae, 0x08, 0x43, 0xbc, 0x24,
  0xc7, 0xaf, 0x58, 0xcf, 0xb0, 0xc9, 0x07, 0x11, 0xaf, 0xef, 0x9d, 0xe6,
  0xfa, 0xef, 0x44, 0x42, 0xb9, 0x28, 0xa5, 0xd8, 0x33, 0xb8, 0x40, 0xf3,
  0xa8, 0xda, 0xe3, 0xc3, 0x8f, 0xc1, 0x9b, 0xb4, 0xcc, 0xc5, 0x17, 0xd8,
  0xc5, 0x1b, 0xc9, 0x44, 0xc5, 0x3e, 0xcd, 0xa6, 0xf4, 0xd4, 0xc3, 0xae,
  0x28, 0xde, 0xcb, 0xae, 0x5a, 0x45, 0x14, 0xba, 0xb2, 0x08, 0x60, 0xdf,
  0xdf, 0xf0, 0x02, 0x36, 0x0b, 0x59, 0x54, 0xca, 0x60, 0x58, 0x07, 0x18,
  0xaf, 0x23, 0xd6, 0xe5, 0x2b, 0xed, 0xbe, 0x56, 0xc2, 0x03, 0x0f, 0xd1,
  0xf3, 0x09, 0x6c, 0xd1, 0x3b, 0x7b, 0xf1, 0x31, 0x47, 0xd1, 0x39, 0x2d,
  0xb6, 0xfd, 0xff, 0xff, 0x04, 0x00, 0x00, 0x00, 0x50, 0x00, 0x00, 0x00,
  0xd4, 0x02, 0x00, 0x00, 0xee, 0xff, 0xff, 0xff, 0xd4, 0x00, 0x00, 0x00,
  0x2e, 0x03, 0x00, 0x00, 0x09, 0x00, 0x00, 0x00, 0x79, 0x01, 0x00, 0x00,
  0x97, 0x00, 0x00, 0x00, 0xfc, 0x01, 0x00, 0x00, 0x84, 0xff, 0xff, 0xff,
  0x0b, 0x04, 0x00, 0x00, 0x7f, 0x03, 0x00, 0x00, 0xcf, 0x02, 0x00, 0x00,
  0x5a, 0x01, 0x00, 0x00, 0x06, 0xfe, 0xff, 0xff, 0x76, 0x00, 0x00, 0x00,
  0xab, 0xff, 0xff, 0xff, 0x8b, 0x00, 0x00, 0x00, 0x5a, 0x00, 0x00, 0x00,
  0xfb, 0x00, 0x00, 0x00, 0x16, 0x03, 0x00, 0x00, 0x12, 0xfe, 0xff, 0xff,
  0x04, 0x00, 0x00, 0x00, 0xc8, 0x00, 0x00, 0x00, 0x28, 0xd6, 0xcb, 0x29,
  0x5b, 0x07, 0x64, 0xb4, 0x08, 0xd2, 0x13, 0x28, 0x2a, 0x5d, 0x2b, 0xac,
  0xf9, 0xea, 0xb9, 0x23, 0xd6, 0x8b, 0x46, 0x21, 0x39, 0xff, 0xe1, 0xae,
  0xbd, 0x1a, 0xef, 0xd8, 0x55, 0x35, 0x4c, 0x6a, 0xf0, 0x37, 0xfa, 0xf0,
  0x1e, 0xc7, 0x15, 0x7c, 0xe2, 0xe7, 0xc1, 0x2d, 0xed, 0x22, 0x45, 0x3b,
  0xff, 0xce, 0xd6, 0xeb, 0x52, 0xca, 0xc8, 0xd6, 0x5a, 0x2b, 0x56, 0x1e,
  0xbc, 0x33, 0xbd, 0xec, 0xdc, 0x5f, 0x5a, 0x19, 0xae, 0xaf, 0xf0, 0xd3,
  0xe3, 0xe5, 0x50, 0x64, 0xe9, 0x3a, 0xac, 0xd3, 0xbd, 0x50, 0xe7, 0x2c,
  0xae, 0x47, 0x5e, 0x2a, 0x0b, 0x37, 0x20, 0xc5, 0xe5, 0x67, 0x52, 0x3d,
  0xde, 0x63, 0xd5, 0x4c, 0xf4, 0xb6, 0xf2, 0x65, 0x9a, 0x09, 0x5b, 0x28,
  0xe5, 0x52, 0xef, 0xd9, 0xfd, 0x4b, 0xdc, 0x2c, 0x55, 0x2a, 0xbb, 0xa6,
  0x4d, 0x56, 0x1d, 0xf8, 0xdf, 0x16, 0x2f, 0x27, 0xe3, 0xe5, 0x1d, 0xea,
  0x46, 0xed, 0x03, 0xee, 0xd7, 0x39, 0x2b, 0x1d, 0x05, 0x5c, 0x63, 0x9b,
  0x7b, 0xd4, 0xc9, 0x7f, 0x52, 0xf0, 0xbd, 0x3a, 0x57, 0xf5, 0x1c, 0x42,
  0x2b, 0x12, 0x32, 0x2f, 0x58, 0x38, 0x9c, 0xeb, 0xee, 0xee, 0x6c, 0x1a,
  0x17, 0xb7, 0xd1, 0x65, 0xc4, 0x4e, 0xed, 0xe4, 0x2c, 0xc8, 0x06, 0x12,
  0x57, 0x53, 0xf9, 0x13, 0x57, 0xa2, 0xe3, 0x3f, 0xb6, 0xcf, 0x37, 0x04,
  0xe1, 0x5b, 0xfe, 0x49, 0xe6, 0xfe, 0xff, 0xff, 0x04, 0x00, 0x00, 0x00,
  0x28, 0x00, 0x00, 0x00, 0x7c, 0x00, 0x00, 0x00, 0x4f, 0x02, 0x00, 0x00,
  0x21, 0x03, 0x00, 0x00, 0xb3, 0x02, 0x00, 0x00, 0xb1, 0x01, 0x00, 0x00,
  0x21, 0x03, 0x00, 0x00, 0xef, 0x00, 0x00, 0x00, 0x04, 0xfe, 0xff, 0xff,
  0x8f, 0xff, 0xff, 0xff, 0x29, 0x01, 0x00, 0x00, 0x1a, 0xff, 0xff, 0xff,
  0x04, 0x00, 0x00, 0x00, 0x28, 0x00, 0x00, 0x00, 0x27, 0x2c, 0x7f, 0xe3,
  0x06, 0xb8, 0x85, 0xd8, 0x7a, 0x21, 0x47, 0xdc, 0x94, 0x89, 0x9e, 0x9c,
  0x00, 0x2a, 0xcd, 0x20, 0xac, 0x6c, 0x9b, 0x9c, 0x4d, 0x95, 0x65, 0x33,
  0x2b, 0xb1, 0x08, 0xd0, 0x09, 0x3d, 0x26, 0xec, 0x50, 0xd9, 0xb0, 0x96,
  0x4e, 0xff, 0xff, 0xff, 0x04, 0x00, 0x00, 0x00, 0x10, 0x00, 0x00, 0x00,
  0xf5, 0xff, 0xff, 0xff, 0xc6, 0xff, 0xff, 0xff, 0xaa, 0xfe, 0xff, 0xff,
  0x72, 0x01, 0x00, 0x00, 0x38, 0xff, 0xff, 0xff, 0x3c, 0xff, 0xff, 0xff,
  0x0f, 0x00, 0x00, 0x00, 0x4d, 0x4c, 0x49, 0x52, 0x20, 0x43, 0x6f, 0x6e,
  0x76, 0x65, 0x72, 0x74, 0x65, 0x64, 0x2e, 0x00, 0x01, 0x00, 0x00, 0x00,
  0x14, 0x00, 0x00, 0x00, 0x00, 0x00, 0x0e, 0x00, 0x18, 0x00, 0x14, 0x00,
  0x10, 0x00, 0x0c, 0x00, 0x08, 0x00, 0x04, 0x00, 0x0e, 0x00, 0x00, 0x00,
  0x14, 0x00, 0x00, 0x00, 0x1c, 0x00, 0x00, 0x00, 0x28, 0x01, 0x00, 0x00,
  0x2c, 0x01, 0x00, 0x00, 0x30, 0x01, 0x00, 0x00, 0x04, 0x00, 0x00, 0x00,
  0x6d, 0x61, 0x69, 0x6e, 0x00, 0x00, 0x00, 0x00, 0x04, 0x00, 0x00, 0x00,
  0xd0, 0x00, 0x00, 0x00, 0x88, 0x00, 0x00, 0x00, 0x50, 0x00, 0x00, 0x00,
  0x14, 0x00, 0x00, 0x00, 0x00, 0x00, 0x0e, 0x00, 0x1a, 0x00, 0x14, 0x00,
  0x10, 0x00, 0x0c, 0x00, 0x0b, 0x00, 0x04, 0x00, 0x0e, 0x00, 0x00, 0x00,
  0x1c, 0x00, 0x00, 0x00, 0x00, 0x00, 0x00, 0x09, 0x1c, 0x00, 0x00, 0x00,
  0x20, 0x00, 0x00, 0x00, 0x01, 0x00, 0x00, 0x00, 0x00, 0x00, 0x06, 0x00,
  0x08, 0x00, 0x04, 0x00, 0x06, 0x00, 0x00, 0x00, 0x00, 0x00, 0x80, 0x3f,
  0x01, 0x00, 0x00, 0x00, 0x0a, 0x00, 0x00, 0x00, 0x01, 0x00, 0x00, 0x00,
  0x09, 0x00, 0x00, 0x00, 0x96, 0xff, 0xff, 0xff, 0x14, 0x00, 0x00, 0x00,
  0x00, 0x00, 0x00, 0x08, 0x10, 0x00, 0x00, 0x00, 0x14, 0x00, 0x00, 0x00,
  0x04, 0x00, 0x04, 0x00, 0x04, 0x00, 0x00, 0x00, 0x01, 0x00, 0x00, 0x00,
  0x09, 0x00, 0x00, 0x00, 0x03, 0x00, 0x00, 0x00, 0x08, 0x00, 0x00, 0x00,
  0x02, 0x00, 0x00, 0x00, 0x01, 0x00, 0x00, 0x00, 0xca, 0xff, 0xff, 0xff,
  0x10, 0x00, 0x00, 0x00, 0x00, 0x00, 0x00, 0x08, 0x10, 0x00, 0x00, 0x00,
  0x14, 0x00, 0x00, 0x00, 0xba, 0xff, 0xff, 0xff, 0x00, 0x00, 0x00, 0x01,
  0x01, 0x00, 0x00, 0x00, 0x08, 0x00, 0x00, 0x00, 0x03, 0x00, 0x00, 0x00,
  0x07, 0x00, 0x00, 0x00, 0x04, 0x00, 0x00, 0x00, 0x03, 0x00, 0x00, 0x00,
  0x00, 0x00, 0x0e, 0x00, 0x16, 0x00, 0x00, 0x00, 0x10, 0x00, 0x0c, 0x00,
  0x0b, 0x00, 0x04, 0x00, 0x0e, 0x00, 0x00, 0x00, 0x18, 0x00, 0x00, 0x00,
  0x00, 0x00, 0x00, 0x08, 0x18, 0x00, 0x00, 0x00, 0x1c, 0x00, 0x00, 0x00,
  0x00, 0x00, 0x06, 0x00, 0x08, 0x00, 0x07, 0x00, 0x06, 0x00, 0x00, 0x00,
  0x00, 0x00, 0x00, 0x01, 0x01, 0x00, 0x00, 0x00, 0x07, 0x00, 0x00, 0x00,
  0x03, 0x00, 0x00, 0x00, 0x00, 0x00, 0x00, 0x00, 0x06, 0x00, 0x00, 0x00,
  0x05, 0x00, 0x00, 0x00, 0x01, 0x00, 0x00, 0x00, 0x0a, 0x00, 0x00, 0x00,
  0x01, 0x00, 0x00, 0x00, 0x00, 0x00, 0x00, 0x00, 0x0b, 0x00, 0x00, 0x00,
  0xa0, 0x04, 0x00, 0x00, 0x28, 0x04, 0x00, 0x00, 0xc4, 0x03, 0x00, 0x00,
  0x60, 0x03, 0x00, 0x00, 0xfc, 0x02, 0x00, 0x00, 0x98, 0x02, 0x00, 0x00,
  0x34, 0x02, 0x00, 0x00, 0x98, 0x01, 0x00, 0x00, 0xf4, 0x00, 0x00, 0x00,
  0x70, 0x00, 0x00, 0x00, 0x04, 0x00, 0x00, 0x00, 0xa2, 0xfb, 0xff, 0xff,
  0x00, 0x00, 0x00, 0x01, 0x14, 0x00, 0x00, 0x00, 0x30, 0x00, 0x00, 0x00,
  0x0b, 0x00, 0x00, 0x00, 0x00, 0x00, 0x00, 0x09, 0x44, 0x00, 0x00, 0x00,
  0x8c, 0xfb, 0xff, 0xff, 0x08, 0x00, 0x00, 0x00, 0x10, 0x00, 0x00, 0x00,
  0x01, 0x00, 0x00, 0x00, 0x80, 0xff, 0xff, 0xff, 0xff, 0xff, 0xff, 0xff,
  0x01, 0x00, 0x00, 0x00, 0x00, 0x00, 0x80, 0x3b, 0x19, 0x00, 0x00, 0x00,
  0x53, 0x74, 0x61, 0x74, 0x65, 0x66, 0x75, 0x6c, 0x50, 0x61, 0x72, 0x74,
  0x69, 0x74, 0x69, 0x6f, 0x6e, 0x65, 0x64, 0x43, 0x61, 0x6c, 0x6c, 0x3a,
  0x30, 0x00, 0x00, 0x00, 0x02, 0x00, 0x00, 0x00, 0x01, 0x00, 0x00, 0x00,
  0x04, 0x00, 0x00, 0x00, 0x0a, 0xfc, 0xff, 0xff, 0x00, 0x00, 0x00, 0x01,
  0x14, 0x00, 0x00, 0x00, 0x30, 0x00, 0x00, 0x00, 0x0a, 0x00, 0x00, 0x00,
  0x00, 0x00, 0x00, 0x09, 0x5c, 0x00, 0x00, 0x00, 0xf4, 0xfb, 0xff, 0xff,
  0x08, 0x00, 0x00, 0x00, 0x10, 0x00, 0x00, 0x00, 0x01, 0x00, 0x00, 0x00,
  0xb9, 0xff, 0xff, 0xff, 0xff, 0xff, 0xff, 0xff, 0x01, 0x00, 0x00, 0x00,
  0xa5, 0x0c, 0xab, 0x3d, 0x32, 0x00, 0x00, 0x00, 0x73, 0x65, 0x71, 0x75,
  0x65, 0x6e, 0x74, 0x69, 0x61, 0x6c, 0x2f, 0x79, 0x5f, 0x70, 0x72, 0x65,
  0x64, 0x2f, 0x4d, 0x61, 0x74, 0x4d, 0x75, 0x6c, 0x3b, 0x73, 0x65, 0x71,
  0x75, 0x65, 0x6e, 0x74, 0x69, 0x61, 0x6c, 0x2f, 0x79, 0x5f, 0x70, 0x72,
  0x65, 0x64, 0x2f, 0x42, 0x69, 0x61, 0x73, 0x41, 0x64, 0x64, 0x00, 0x00,
  0x02, 0x00, 0x00, 0x00, 0x01, 0x00, 0x00, 0x00, 0x04, 0x00, 0x00, 0x00,
  0x8a, 0xfc, 0xff, 0xff, 0x00, 0x00, 0x00, 0x01, 0x14, 0x00, 0x00, 0x00,
  0x34, 0x00, 0x00, 0x00, 0x09, 0x00, 0x00, 0x00, 0x00, 0x00, 0x00, 0x09,
  0x7c, 0x00, 0x00, 0x00, 0x74, 0xfc, 0xff, 0xff, 0x08, 0x00, 0x00, 0x00,
  0x14, 0x00, 0x00, 0x00, 0x01, 0x00, 0x00, 0x00, 0x80, 0xff, 0xff, 0xff,
  0xff, 0xff, 0xff, 0xff, 0x00, 0x00, 0x00, 0x00, 0x01, 0x00, 0x00, 0x00,
  0xed, 0x73, 0x64, 0x3d, 0x4c, 0x00, 0x00, 0x00, 0x73, 0x65, 0x71, 0x75,
  0x65, 0x6e, 0x74, 0x69, 0x61, 0x6c, 0x2f, 0x64, 0x65, 0x6e, 0x73, 0x65,
  0x5f, 0x31, 0x2f, 0x4d, 0x61, 0x74, 0x4d, 0x75, 0x6c, 0x3b, 0x73, 0x65,
  0x71, 0x75, 0x65, 0x6e, 0x74, 0x69, 0x61, 0x6c, 0x2f, 0x64, 0x65, 0x6e,
  0x73, 0x65, 0x5f, 0x31, 0x2f, 0x52, 0x65, 0x6c, 0x75, 0x3b, 0x73, 0x65,
  0x71, 0x75, 0x65, 0x6e, 0x74, 0x69, 0x61, 0x6c, 0x2f, 0x64, 0x65, 0x6e,
  0x73, 0x65, 0x5f, 0x31, 0x2f, 0x42, 0x69, 0x61, 0x73, 0x41, 0x64, 0x64,
  0x00, 0x00, 0x00, 0x00, 0x02, 0x00, 0x00, 0x00, 0x01, 0x00, 0x00, 0x00,
  0x0a, 0x00, 0x00, 0x00, 0x2a, 0xfd, 0xff, 0xff, 0x00, 0x00, 0x00, 0x01,
  0x14, 0x00, 0x00, 0x00, 0x34, 0x00, 0x00, 0x00, 0x08, 0x00, 0x00, 0x00,
  0x00, 0x00, 0x00, 0x09, 0x74, 0x00, 0x00, 0x00, 0x14, 0xfd, 0xff, 0xff,
  0x08, 0x00, 0x00, 0x00, 0x14, 0x00, 0x00, 0x00, 0x01, 0x00, 0x00, 0x00,
  0x80, 0xff, 0xff, 0xff, 0xff, 0xff, 0xff, 0xff, 0x00, 0x00, 0x00, 0x00,
  0x01, 0x00, 0x00, 0x00, 0x8c, 0x63, 0x3d, 0x3d, 0x46, 0x00, 0x00, 0x00,
  0x73, 0x65, 0x71, 0x75, 0x65, 0x6e, 0x74, 0x69, 0x61, 0x6c, 0x2f, 0x64,
  0x65, 0x6e, 0x73, 0x65, 0x2f, 0x4d, 0x61, 0x74, 0x4d, 0x75, 0x6c, 0x3b,
  0x73, 0x65, 0x71, 0x75, 0x65, 0x6e, 0x74, 0x69, 0x61, 0x6c, 0x2f, 0x64,
  0x65, 0x6e, 0x73, 0x65, 0x2f, 0x52, 0x65, 0x6c, 0x75, 0x3b, 0x73, 0x65,
  0x71, 0x75, 0x65, 0x6e, 0x74, 0x69, 0x61, 0x6c, 0x2f, 0x64, 0x65, 0x6e,
  0x73, 0x65, 0x2f, 0x42, 0x69, 0x61, 0x73, 0x41, 0x64, 0x64, 0x00, 0x00,
  0x02, 0x00, 0x00, 0x00, 0x01, 0x00, 0x00, 0x00, 0x14, 0x00, 0x00, 0x00,
  0xc2, 0xfd, 0xff, 0xff, 0x00, 0x00, 0x00, 0x01, 0x14, 0x00, 0x00, 0x00,
  0x30, 0x00, 0x00, 0x00, 0x07, 0x00, 0x00, 0x00, 0x00, 0x00, 0x00, 0x09,
  0x3c, 0x00, 0x00, 0x00, 0xac, 0xfd, 0xff, 0xff, 0x08, 0x00, 0x00, 0x00,
  0x10, 0x00, 0x00, 0x00, 0x01, 0x00, 0x00, 0x00, 0x00, 0x00, 0x00, 0x00,
  0x00, 0x00, 0x00, 0x00, 0x01, 0x00, 0x00, 0x00, 0x61, 0xcd, 0x60, 0x3b,
  0x12, 0x00, 0x00, 0x00, 0x74, 0x66, 0x6c, 0x2e, 0x70, 0x73, 0x65, 0x75,
  0x64, 0x6f, 0x5f, 0x71, 0x63, 0x6f, 0x6e, 0x73, 0x74, 0x35, 0x00, 0x00,
  0x02, 0x00, 0x00, 0x00, 0x14, 0x00, 0x00, 0x00, 0x27, 0x00, 0x00, 0x00,
  0x22, 0xfe, 0xff, 0xff, 0x00, 0x00, 0x00, 0x01, 0x14, 0x00, 0x00, 0x00,
  0x34, 0x00, 0x00, 0x00, 0x06, 0x00, 0x00, 0x00, 0x00, 0x00, 0x00, 0x02,
  0x40, 0x00, 0x00, 0x00, 0x0c, 0xfe, 0xff, 0xff, 0x08, 0x00, 0x00, 0x00,
  0x14, 0x00, 0x00, 0x00, 0x01, 0x00, 0x00, 0x00, 0x00, 0x00, 0x00, 0x00,
  0x00, 0x00, 0x00, 0x00, 0x00, 0x00, 0x00, 0x00, 0x01, 0x00, 0x00, 0x00,
  0x5f, 0x44, 0x26, 0x39, 0x12, 0x00, 0x00, 0x00, 0x74, 0x66, 0x6c, 0x2e,
  0x70, 0x73, 0x65, 0x75, 0x64, 0x6f, 0x5f, 0x71, 0x63, 0x6f, 0x6e, 0x73,
  0x74, 0x34, 0x00, 0x00, 0x01, 0x00, 0x00, 0x00, 0x14, 0x00, 0x00, 0x00,
  0x82, 0xfe, 0xff, 0xff, 0x00, 0x00, 0x00, 0x01, 0x14, 0x00, 0x00, 0x00,
  0x30, 0x00, 0x00, 0x00, 0x05, 0x00, 0x00, 0x00, 0x00, 0x00, 0x00, 0x09,
  0x3c, 0x00, 0x00, 0x00, 0x6c, 0xfe, 0xff, 0xff, 0x08, 0x00, 0x00, 0x00,
  0x10, 0x00, 0x00, 0x00, 0x01, 0x00, 0x00, 0x00, 0x00, 0x00, 0x00, 0x00,
  0x00, 0x00, 0x00, 0x00, 0x01, 0x00, 0x00, 0x00, 0x4f, 0xc9, 0x8f, 0x3b,
  0x12, 0x00, 0x00, 0x00, 0x74, 0x66, 0x6c, 0x2e, 0x70, 0x73, 0x65, 0x75,
  0x64, 0x6f, 0x5f, 0x71, 0x63, 0x6f, 0x6e, 0x73, 0x74, 0x33, 0x00, 0x00,
  0x02, 0x00, 0x00, 0x00, 0x0a, 0x00, 0x00, 0x00, 0x14, 0x00, 0x00, 0x00,
  0xe2, 0xfe, 0xff, 0xff, 0x00, 0x00, 0x00, 0x01, 0x14, 0x00, 0x00, 0x00,
  0x34, 0x00, 0x00, 0x00, 0x04, 0x00, 0x00, 0x00, 0x00, 0x00, 0x00, 0x02,
  0x40, 0x00, 0x00, 0x00, 0xcc, 0xfe, 0xff, 0xff, 0x08, 0x00, 0x00, 0x00,
  0x14, 0x00, 0x00, 0x00, 0x01, 0x00, 0x00, 0x00, 0x00, 0x00, 0x00, 0x00,
  0x00, 0x00, 0x00, 0x00, 0x00, 0x00, 0x00, 0x00, 0x01, 0x00, 0x00, 0x00,
  0x12, 0xbf, 0x54, 0x39, 0x12, 0x00, 0x00, 0x00, 0x74, 0x66, 0x6c, 0x2e,
  0x70, 0x73, 0x65, 0x75, 0x64, 0x6f, 0x5f, 0x71, 0x63, 0x6f, 0x6e, 0x73,
  0x74, 0x32, 0x00, 0x00, 0x01, 0x00, 0x00, 0x00, 0x0a, 0x00, 0x00, 0x00,
  0x42, 0xff, 0xff, 0xff, 0x00, 0x00, 0x00, 0x01, 0x14, 0x00, 0x00, 0x00,
  0x30, 0x00, 0x00, 0x00, 0x03, 0x00, 0x00, 0x00, 0x00, 0x00, 0x00, 0x09,
  0x3c, 0x00, 0x00, 0x00, 0x2c, 0xff, 0xff, 0xff, 0x08, 0x00, 0x00, 0x00,
  0x10, 0x00, 0x00, 0x00, 0x01, 0x00, 0x00, 0x00, 0x00, 0x00, 0x00, 0x00,
  0x00, 0x00, 0x00, 0x00, 0x01, 0x00, 0x00, 0x00, 0x39, 0x7c, 0xce, 0x3b,
  0x12, 0x00, 0x00, 0x00, 0x74, 0x66, 0x6c, 0x2e, 0x70, 0x73, 0x65, 0x75,
  0x64, 0x6f, 0x5f, 0x71, 0x63, 0x6f, 0x6e, 0x73, 0x74, 0x31, 0x00, 0x00,
  0x02, 0x00, 0x00, 0x00, 0x04, 0x00, 0x00, 0x00, 0x0a, 0x00, 0x00, 0x00,
  0xa2, 0xff, 0xff, 0xff, 0x00, 0x00, 0x00, 0x01, 0x14, 0x00, 0x00, 0x00,
  0x30, 0x00, 0x00, 0x00, 0x02, 0x00, 0x00, 0x00, 0x00, 0x00, 0x00, 0x02,
  0x3c, 0x00, 0x00, 0x00, 0x8c, 0xff, 0xff, 0xff, 0x08, 0x00, 0x00, 0x00,
  0x10, 0x00, 0x00, 0x00, 0x01, 0x00, 0x00, 0x00, 0x00, 0x00, 0x00, 0x00,
  0x00, 0x00, 0x00, 0x00, 0x01, 0x00, 0x00, 0x00, 0x24, 0x44, 0xb8, 0x39,
  0x11, 0x00, 0x00, 0x00, 0x74, 0x66, 0x6c, 0x2e, 0x70, 0x73, 0x65, 0x75,
  0x64, 0x6f, 0x5f, 0x71, 0x63, 0x6f, 0x6e, 0x73, 0x74, 0x00, 0x00, 0x00,
  0x01, 0x00, 0x00, 0x00, 0x04, 0x00, 0x00, 0x00, 0x00, 0x00, 0x16, 0x00,
  0x1c, 0x00, 0x18, 0x00, 0x17, 0x00, 0x10, 0x00, 0x0c, 0x00, 0x08, 0x00,
  0x00, 0x00, 0x00, 0x00, 0x00, 0x00, 0x07, 0x00, 0x16, 0x00, 0x00, 0x00,
  0x00, 0x00, 0x00, 0x01, 0x20, 0x00, 0x00, 0x00, 0x40, 0x00, 0x00, 0x00,
  0x01, 0x00, 0x00, 0x00, 0x00, 0x00, 0x00, 0x09, 0x4c, 0x00, 0x00, 0x00,
  0x0c, 0x00, 0x0c, 0x00, 0x00, 0x00, 0x00, 0x00, 0x08, 0x00, 0x04, 0x00,
  0x0c, 0x00, 0x00, 0x00, 0x08, 0x00, 0x00, 0x00, 0x14, 0x00, 0x00, 0x00,
  0x01, 0x00, 0x00, 0x00, 0xf9, 0xff, 0xff, 0xff, 0xff, 0xff, 0xff, 0xff,
  0x00, 0x00, 0x00, 0x00, 0x01, 0x00, 0x00, 0x00, 0x65, 0x57, 0x3d, 0x3d,
  0x13, 0x00, 0x00, 0x00, 0x73, 0x65, 0x72, 0x76, 0x69, 0x6e, 0x67, 0x5f,
  0x64, 0x65, 0x66, 0x61, 0x75, 0x6c, 0x74, 0x5f, 0x78, 0x3a, 0x30, 0x00,
  0x02, 0x00, 0x00, 0x00, 0x01, 0x00, 0x00, 0x00, 0x27, 0x00, 0x00, 0x00,
  0x02, 0x00, 0x00, 0x00, 0x24, 0x00, 0x00, 0x00, 0x04, 0x00, 0x00, 0x00,
  0xf0, 0xff, 0xff, 0xff, 0x19, 0x00, 0x00, 0x00, 0x02, 0x00, 0x00, 0x00,
  0x00, 0x00, 0x00, 0x19, 0x0c, 0x00, 0x10, 0x00, 0x0f, 0x00, 0x00, 0x00,
  0x08, 0x00, 0x04, 0x00, 0x0c, 0x00, 0x00, 0x00, 0x09, 0x00, 0x00, 0x00,
  0x04, 0x00, 0x00, 0x00, 0x00, 0x00, 0x00, 0x09
};
unsigned int tflite_learn_1001478_6_len = 3512;
#endif // _EI_CLASSIFIER_TFLITE_LEARN_1001478_6_H_
