/*
 * Copyright (c) 2026 EdgeImpulse Inc.
 *
 * Generated by Edge Impulse and licensed under the applicable Edge Impulse
 * Terms of Service. Community and Professional Terms of Service
 * (https://edgeimpulse.com/legal/terms-of-service) or Enterprise Terms of
 * Service (https://edgeimpulse.com/legal/enterprise-terms-of-service),
 * according to your product plan subscription (the “License”).
 *
 * This software, documentation and other associated files (collectively referred
 * to as the “Software”) is a single SDK variation generated by the Edge Impulse
 * platform and requires an active paid Edge Impulse subscription to use this
 * Software for any purpose.
 *
 * You may NOT use this Software unless you have an active Edge Impulse subscription
 * that meets the eligibility requirements for the applicable License, subject to
 * your full and continued compliance with the terms and conditions of the License,
 * including without limitation any usage restrictions under the applicable License.
 *
 * If you do not have an active Edge Impulse product plan subscription, or if use
 * of this Software exceeds the usage limitations of your Edge Impulse product plan
 * subscription, you are not permitted to use this Software and must immediately
 * delete and erase all copies of this Software within your control or possession.
 * Edge Impulse reserves all rights and remedies available to enforce its rights.
 *
 * Unless required by applicable law or agreed to in writing, the Software is
 * distributed on an "AS IS" BASIS, WITHOUT WARRANTIES OR CONDITIONS OF ANY KIND,
 * either express or implied. See the License for the specific language governing
 * permissions, disclaimers and limitations under the License.
 */

#ifndef _EI_CLASSIFIER_TFLITE_LEARN_1003053_8_H_
#define _EI_CLASSIFIER_TFLITE_LEARN_1003053_8_H_

#define EI_CLASSIFIER_TFLITE_LEARN_1003053_8_ARENA_SIZE     2982
const size_t tflite_learn_1003053_8_arena_size = 2982;

#if defined __GNUC__
#define ALIGN(X) __attribute__((aligned(X)))
#elif defined _MSC_VER
#define ALIGN(X) __declspec(align(X))
#elif defined __TASKING__
#define ALIGN(X) __align(X)
#else
#define ALIGN(X)
#endif

#if defined(EI_MODEL_SECTION) && (defined(__GNUC__) || defined(__clang__))
#define STRINGIZE(x) #x
#define STRINGIZE_VALUE_OF(x) STRINGIZE(x)
#define MODEL_SECTION(X) __attribute__((section(STRINGIZE_VALUE_OF(X))))
#else
#define MODEL_SECTION(X)
#endif


MODEL_SECTION(EI_MODEL_SECTION) ALIGN(16) const unsigned char tflite_learn_1003053_8[] = {
  0x1c, 0x00, 0x00, 0x00, 0x54, 0x46, 0x4c, 0x33, 0x14, 0x00, 0x20, 0x00,
  0x1c, 0x00, 0x18, 0x00, 0x14, 0x00, 0x10, 0x00, 0x0c, 0x00, 0x00, 0x00,
  0x08, 0x00, 0x04, 0x00, 0x14, 0x00, 0x00, 0x00, 0x1c, 0x00, 0x00, 0x00,
  0x8c, 0x00, 0x00, 0x00, 0x0c, 0x01, 0x00, 0x00, 0xd0, 0x06, 0x00, 0x00,
  0xe0, 0x06, 0x00, 0x00, 0x4c, 0x0d, 0x00, 0x00, 0x03, 0x00, 0x00, 0x00,
  0x01, 0x00, 0x00, 0x00, 0x10, 0x00, 0x00, 0x00, 0x00, 0x00, 0x0a, 0x00,
  0x10, 0x00, 0x0c, 0x00, 0x08, 0x00, 0x04, 0x00, 0x0a, 0x00, 0x00, 0x00,
  0x0c, 0x00, 0x00, 0x00, 0x1c, 0x00, 0x00, 0x00, 0x3c, 0x00, 0x00, 0x00,
  0x0f, 0x00, 0x00, 0x00, 0x73, 0x65, 0x72, 0x76, 0x69, 0x6e, 0x67, 0x5f,
  0x64, 0x65, 0x66, 0x61, 0x75, 0x6c, 0x74, 0x00, 0x01, 0x00, 0x00, 0x00,
  0x04, 0x00, 0x00, 0x00, 0x74, 0xff, 0xff, 0xff, 0x0a, 0x00, 0x00, 0x00,
  0x04, 0x00, 0x00, 0x00, 0x08, 0x00, 0x00, 0x00, 0x6f, 0x75, 0x74, 0x70,
  0x75, 0x74, 0x5f, 0x30, 0x00, 0x00, 0x00, 0x00, 0x01, 0x00, 0x00, 0x00,
  0x04, 0x00, 0x00, 0x00, 0x16, 0xf9, 0xff, 0xff, 0x04, 0x00, 0x00, 0x00,
  0x01, 0x00, 0x00, 0x00, 0x78, 0x00, 0x00, 0x00, 0x03, 0x00, 0x00, 0x00,
  0x5c, 0x00, 0x00, 0x00, 0x2c, 0x00, 0x00, 0x00, 0x04, 0x00, 0x00, 0x00,
  0xb8, 0xff, 0xff, 0xff, 0x0e, 0x00, 0x00, 0x00, 0x04, 0x00, 0x00, 0x00,
  0x13, 0x00, 0x00, 0x00, 0x43, 0x4f, 0x4e, 0x56, 0x45, 0x52, 0x53, 0x49,
  0x4f, 0x4e, 0x5f, 0x4d, 0x45, 0x54, 0x41, 0x44, 0x41, 0x54, 0x41, 0x00,
  0xdc, 0xff, 0xff, 0xff, 0x0d, 0x00, 0x00, 0x00, 0x04, 0x00, 0x00, 0x00,
  0x13, 0x00, 0x00, 0x00, 0x6d, 0x69, 0x6e, 0x5f, 0x72, 0x75, 0x6e, 0x74,
  0x69, 0x6d, 0x65, 0x5f, 0x76, 0x65, 0x72, 0x73, 0x69, 0x6f, 0x6e, 0x00,
  0x08, 0x00, 0x0c, 0x00, 0x08, 0x00, 0x04, 0x00, 0x08, 0x00, 0x00, 0x00,
  0x0c, 0x00, 0x00, 0x00, 0x04, 0x00, 0x00, 0x00, 0x13, 0x00, 0x00, 0x00,
  0x6d, 0x69, 0x6e, 0x5f, 0x72, 0x75, 0x6e, 0x74, 0x69, 0x6d, 0x65, 0x5f,
  0x76, 0x65, 0x72, 0x73, 0x69, 0x6f, 0x6e, 0x00, 0x0f, 0x00, 0x00, 0x00,
  0xc0, 0x05, 0x00, 0x00, 0xb8, 0x05, 0x00, 0x00, 0x98, 0x05, 0x00, 0x00,
  0x60, 0x05, 0x00, 0x00, 0x28, 0x05, 0x00, 0x00, 0x50, 0x04, 0x00, 0x00,
  0xf0, 0x03, 0x00, 0x00, 0xd4, 0x00, 0x00, 0x00, 0xcc, 0x00, 0x00, 0x00,
  0xc4, 0x00, 0x00, 0x00, 0xbc, 0x00, 0x00, 0x00, 0xb4, 0x00, 0x00, 0x00,
  0x94, 0x00, 0x00, 0x00, 0x74, 0x00, 0x00, 0x00, 0x04, 0x00, 0x00, 0x00,
  0xea, 0xf9, 0xff, 0xff, 0x04, 0x00, 0x00, 0x00, 0x60, 0x00, 0x00, 0x00,
  0x0c, 0x00, 0x00, 0x00, 0x08, 0x00, 0x0e, 0x00, 0x08, 0x00, 0x04, 0x00,
  0x08, 0x00, 0x00, 0x00, 0x10, 0x00, 0x00, 0x00, 0x28, 0x00, 0x00, 0x00,
  0x00, 0x00, 0x06, 0x00, 0x08, 0x00, 0x04, 0x00, 0x06, 0x00, 0x00, 0x00,
  0x04, 0x00, 0x00, 0x00, 0x01, 0x00, 0x00, 0x00, 0xeb, 0x03, 0x00, 0x00,
  0x0c, 0x00, 0x18, 0x00, 0x14, 0x00, 0x10, 0x00, 0x0c, 0x00, 0x04, 0x00,
  0x0c, 0x00, 0x00, 0x00, 0x6e, 0xfe, 0x65, 0x5a, 0x1b, 0x86, 0x81, 0x24,
  0x03, 0x00, 0x00, 0x00, 0x02, 0x00, 0x00, 0x00, 0x04, 0x00, 0x00, 0x00,
  0x06, 0x00, 0x00, 0x00, 0x32, 0x2e, 0x31, 0x39, 0x2e, 0x31, 0x00, 0x00,
  0x56, 0xfa, 0xff, 0xff, 0x04, 0x00, 0x00, 0x00, 0x10, 0x00, 0x00, 0x00,
  0x00, 0x00, 0x00, 0x00, 0x00, 0x00, 0x00, 0x00, 0x00, 0x00, 0x00, 0x00,
  0x00, 0x00, 0x00, 0x00, 0x72, 0xfa, 0xff, 0xff, 0x04, 0x00, 0x00, 0x00,
  0x10, 0x00, 0x00, 0x00, 0x31, 0x2e, 0x31, 0x34, 0x2e, 0x30, 0x00, 0x00,
  0x00, 0x00, 0x00, 0x00, 0x00, 0x00, 0x00, 0x00, 0x5c, 0xfa, 0xff, 0xff,
  0x60, 0xfa, 0xff, 0xff, 0x64, 0xfa, 0xff, 0xff, 0x68, 0xfa, 0xff, 0xff,
  0x9e, 0xfa, 0xff, 0xff, 0x04, 0x00, 0x00, 0x00, 0x0c, 0x03, 0x00, 0x00,
  0x2e, 0x01, 0xf8, 0x24, 0x0e, 0x37, 0x30, 0x03, 0x29, 0xf4, 0x00, 0x08,
  0xee, 0xf9, 0xf7, 0x14, 0x01, 0x04, 0xe8, 0xed, 0x08, 0xf6, 0xff, 0xf5,
  0xe0, 0xfe, 0xf9, 0xfd, 0xf5, 0xf0, 0x07, 0xfa, 0x31, 0xfe, 0xf7, 0x04,
  0xed, 0x03, 0xf4, 0xf5, 0x51, 0x10, 0xfd, 0xfc, 0x04, 0x03, 0x08, 0x0e,
  0x20, 0xfa, 0x12, 0x09, 0xf5, 0x05, 0xec, 0x05, 0x04, 0x04, 0xf2, 0xfa,
  0xfc, 0x06, 0xff, 0x0a, 0x03, 0xf0, 0x04, 0x00, 0xec, 0xed, 0x08, 0x04,
  0x04, 0x02, 0xf5, 0xf6, 0xfc, 0xfe, 0x1b, 0xfd, 0xe8, 0xf5, 0x11, 0xf8,
  0x0f, 0x26, 0x24, 0xff, 0xf1, 0x00, 0xf0, 0x0c, 0x00, 0xfb, 0x0b, 0x0d,
  0xee, 0x00, 0x18, 0xf2, 0x00, 0xe9, 0xf5, 0xf6, 0x25, 0x18, 0xfd, 0xf3,
  0xfd, 0xfe, 0x17, 0xff, 0x0b, 0xfb, 0xed, 0xf9, 0x05, 0x0a, 0xe2, 0xea,
  0x07, 0xef, 0x15, 0x0a, 0x0d, 0xfe, 0xf1, 0x0b, 0x08, 0x02, 0x20, 0x12,
  0xf8, 0xf2, 0xe7, 0x1f, 0x11, 0xef, 0xfe, 0xf2, 0xf4, 0x08, 0x01, 0x09,
  0x08, 0x0b, 0x09, 0xea, 0x1f, 0x27, 0xf8, 0x07, 0x00, 0x18, 0xed, 0x01,
  0x01, 0xe3, 0x11, 0xec, 0xf5, 0xe7, 0x0d, 0xf8, 0xf8, 0x08, 0xf9, 0x02,
  0xf4, 0x00, 0x09, 0xfc, 0xfc, 0x04, 0xf7, 0xf6, 0xf8, 0x10, 0xfd, 0xfc,
  0xfd, 0x01, 0x05, 0x09, 0xeb, 0xe5, 0x05, 0xec, 0x0e, 0xf4, 0xf8, 0xf4,
  0xf8, 0xf2, 0x06, 0x0c, 0x1b, 0x03, 0x00, 0xfa, 0xff, 0x0c, 0x31, 0xfb,
  0x06, 0xef, 0xf8, 0xed, 0x10, 0x07, 0xf3, 0xef, 0xfe, 0xfb, 0xfe, 0xf1,
  0xf0, 0xf9, 0xf3, 0x0c, 0xf7, 0x09, 0x0a, 0xf3, 0x16, 0xff, 0x01, 0x1d,
  0xf9, 0x05, 0xef, 0x0e, 0xf3, 0x05, 0x03, 0x08, 0xea, 0xf3, 0xfa, 0xe5,
  0xf9, 0x11, 0xff, 0x02, 0xfd, 0xfc, 0xfc, 0x09, 0x0e, 0xfe, 0xf2, 0xf4,
  0x09, 0x09, 0xf5, 0x05, 0xfa, 0x0f, 0xfb, 0xfe, 0x09, 0xd8, 0xfe, 0xf9,
  0x06, 0xdd, 0x06, 0x00, 0xf2, 0x02, 0xeb, 0x03, 0xee, 0x06, 0xf2, 0x01,
  0x20, 0x18, 0xf5, 0xf0, 0xf4, 0xe5, 0x00, 0xf1, 0x08, 0xf0, 0x42, 0xf8,
  0xf3, 0x00, 0xfa, 0xff, 0x2f, 0x1c, 0xf0, 0xf8, 0xfe, 0xfd, 0x1d, 0x2d,
  0x16, 0xea, 0x07, 0x10, 0x4f, 0xff, 0xe7, 0xf1, 0xef, 0xfe, 0x09, 0x1d,
  0x41, 0xf1, 0x12, 0xff, 0xec, 0x20, 0x0e, 0x02, 0x0a, 0x02, 0x00, 0x07,
  0x04, 0x49, 0xe9, 0x05, 0x11, 0xec, 0x3f, 0x19, 0x28, 0x24, 0x26, 0x11,
  0x15, 0x10, 0x7f, 0x39, 0x06, 0xf4, 0x03, 0x04, 0x38, 0x10, 0xfe, 0x00,
  0xf8, 0x28, 0xfd, 0xfa, 0x0c, 0xf1, 0xf7, 0xf3, 0x23, 0xf7, 0x0a, 0xfd,
  0xf5, 0xf7, 0xfa, 0xf5, 0xf7, 0x07, 0xf6, 0xf6, 0xfe, 0x16, 0xfa, 0x01,
  0x1d, 0x09, 0x2d, 0x2d, 0x1e, 0xf6, 0x0b, 0xfb, 0xfd, 0xef, 0xfe, 0xf9,
  0x05, 0x1c, 0x0c, 0x1f, 0x20, 0x03, 0x1f, 0x69, 0x04, 0xea, 0xe2, 0x02,
  0x0a, 0x09, 0xfb, 0x05, 0xf0, 0x01, 0x00, 0xfb, 0x0a, 0xf6, 0xfd, 0x00,
  0xff, 0x06, 0xf3, 0x0d, 0xea, 0x0b, 0x08, 0xf7, 0xfa, 0x21, 0x18, 0x11,
  0xfb, 0xee, 0xf3, 0x06, 0x28, 0x18, 0xf7, 0xef, 0xee, 0x06, 0xed, 0xeb,
  0xf4, 0xeb, 0xf7, 0x0e, 0xf9, 0x05, 0xff, 0x0b, 0x08, 0x09, 0x12, 0x0d,
  0x30, 0xee, 0xed, 0x10, 0x00, 0xfd, 0xfc, 0x11, 0x02, 0x08, 0x06, 0x0a,
  0xf7, 0xf9, 0xf9, 0xeb, 0xfd, 0x01, 0xf7, 0x01, 0xfd, 0xf8, 0x03, 0x01,
  0xef, 0x00, 0xfa, 0xf7, 0x11, 0xdd, 0xf1, 0xe8, 0xee, 0x03, 0xf6, 0xed,
  0xff, 0x0a, 0x04, 0x13, 0xfe, 0xfd, 0x0a, 0xfa, 0x04, 0x07, 0xf7, 0x0d,
  0x0e, 0xfa, 0xfe, 0xf7, 0x0f, 0xf9, 0x00, 0xf6, 0xf0, 0x09, 0x04, 0x06,
  0x0b, 0xf4, 0xf0, 0xff, 0xf4, 0x09, 0xf9, 0x0e, 0xff, 0xf3, 0x16, 0x00,
  0x05, 0x01, 0x03, 0x12, 0x08, 0x08, 0xe9, 0xe9, 0xfb, 0xe5, 0xf5, 0xee,
  0xf2, 0x02, 0xf9, 0xfa, 0xef, 0xef, 0x15, 0xeb, 0xf5, 0x02, 0xd8, 0xf5,
  0xf1, 0xfc, 0x00, 0x04, 0xfd, 0x0c, 0xfe, 0x0f, 0x03, 0x00, 0x0b, 0xdb,
  0xe5, 0xf6, 0xf9, 0xfd, 0x08, 0xeb, 0xec, 0x4e, 0x13, 0xfb, 0xef, 0x14,
  0x05, 0xf6, 0x2c, 0x29, 0xfe, 0x1c, 0xf5, 0xfa, 0x2b, 0xf9, 0x25, 0xf5,
  0x24, 0xfc, 0xf9, 0x1a, 0x03, 0xfc, 0xf8, 0x14, 0x2e, 0x05, 0x15, 0xf8,
  0xf1, 0xf5, 0x0b, 0x04, 0x09, 0x0e, 0x0d, 0x04, 0x10, 0xfb, 0x0f, 0x31,
  0xe4, 0x04, 0xff, 0x0e, 0x19, 0xf5, 0x24, 0xf7, 0x11, 0x0a, 0x05, 0xfd,
  0x05, 0xf9, 0xf5, 0x00, 0x01, 0x01, 0x13, 0x05, 0x0a, 0x06, 0xf5, 0x0c,
  0x05, 0x05, 0x0d, 0xfd, 0x03, 0x08, 0xfc, 0xeb, 0xfc, 0xe7, 0xeb, 0xf3,
  0xfd, 0x13, 0xf5, 0x0a, 0xf7, 0xfd, 0x15, 0xf5, 0xe4, 0xe4, 0xfa, 0xef,
  0xfd, 0xeb, 0x00, 0x2a, 0xf0, 0x19, 0xfb, 0x1f, 0x01, 0xde, 0xe3, 0xe8,
  0xfa, 0xe6, 0xee, 0xea, 0x0a, 0x1a, 0x00, 0x02, 0xea, 0xeb, 0xfc, 0xf7,
  0xf7, 0xfa, 0x11, 0xf9, 0x1c, 0xc9, 0xfe, 0xf0, 0x01, 0x36, 0xfc, 0x1f,
  0x00, 0xfb, 0x3b, 0xff, 0xfb, 0xfd, 0x19, 0xdf, 0xf6, 0x1e, 0xf4, 0xf4,
  0xfb, 0xff, 0x21, 0x23, 0xfc, 0x1a, 0x00, 0x05, 0xfa, 0xed, 0x17, 0x27,
  0xfd, 0x0f, 0x0c, 0xfd, 0xf1, 0xf8, 0xf1, 0xf0, 0x00, 0xee, 0xfd, 0xe8,
  0xf2, 0x04, 0xf7, 0x16, 0xef, 0x08, 0xef, 0xec, 0xf8, 0x05, 0xe8, 0xf0,
  0x06, 0xf4, 0xfa, 0xf7, 0x2c, 0x0f, 0xff, 0xee, 0xec, 0x24, 0xf5, 0xe9,
  0xff, 0xfa, 0x11, 0x1c, 0x02, 0x0f, 0x07, 0xed, 0x04, 0x07, 0x14, 0x0d,
  0xf3, 0x0c, 0xfa, 0x01, 0x0d, 0xf7, 0xee, 0x0c, 0xec, 0xfa, 0xfc, 0x05,
  0xdc, 0x26, 0x23, 0xfa, 0x0e, 0x3c, 0xfc, 0xff, 0xfe, 0xeb, 0xfc, 0xf4,
  0xb6, 0xfd, 0xff, 0xff, 0x04, 0x00, 0x00, 0x00, 0x50, 0x00, 0x00, 0x00,
  0x01, 0x00, 0x00, 0x00, 0x00, 0x00, 0x00, 0x00, 0x01, 0x00, 0x00, 0x00,
  0x00, 0x00, 0x00, 0x00, 0xff, 0xff, 0xff, 0xff, 0x00, 0x00, 0x00, 0x00,
  0x00, 0x00, 0x00, 0x00, 0x01, 0x00, 0x00, 0x00, 0x02, 0x00, 0x00, 0x00,
  0x00, 0x00, 0x00, 0x00, 0x00, 0x00, 0x00, 0x00, 0x00, 0x00, 0x00, 0x00,
  0x00, 0x00, 0x00, 0x00, 0x00, 0x00, 0x00, 0x00, 0x00, 0x00, 0x00, 0x00,
  0x00, 0x00, 0x00, 0x00, 0x01, 0x00, 0x00, 0x00, 0x00, 0x00, 0x00, 0x00,
  0x00, 0x00, 0x00, 0x00, 0x02, 0x00, 0x00, 0x00, 0x12, 0xfe, 0xff, 0xff,
  0x04, 0x00, 0x00, 0x00, 0xc8, 0x00, 0x00, 0x00, 0x0b, 0xfb, 0xfc, 0x02,
  0x1c, 0x06, 0x22, 0xf0, 0x11, 0xfb, 0xff, 0x07, 0x0d, 0x23, 0x08, 0xf9,
  0x01, 0x06, 0xfa, 0x00, 0xf1, 0xf9, 0xfe, 0x11, 0xff, 0xfa, 0xfe, 0xf6,
  0xfb, 0xf6, 0x01, 0xf2, 0x02, 0x00, 0x1d, 0xfe, 0xf6, 0x0a, 0xfd, 0xff,
  0xf7, 0xfd, 0xfc, 0x0e, 0xfa, 0xfb, 0xf7, 0x27, 0xfd, 0xff, 0x0a, 0xfa,
  0x01, 0xf4, 0x12, 0xfa, 0x0c, 0x00, 0xf1, 0xf3, 0x0d, 0x06, 0x1f, 0x09,
  0xf5, 0x08, 0xfc, 0xf6, 0xf6, 0x03, 0x0f, 0x00, 0xf3, 0xf5, 0x07, 0xf9,
  0xf9, 0x05, 0x14, 0xff, 0xf7, 0x09, 0xee, 0x08, 0xf3, 0x03, 0xf9, 0x05,
  0xd9, 0x03, 0x19, 0x0b, 0x01, 0x00, 0x0a, 0xf6, 0xf8, 0x1c, 0x06, 0x11,
  0xf6, 0x03, 0xfa, 0x7f, 0xf0, 0xee, 0xf3, 0xfb, 0x50, 0xf5, 0xf6, 0x02,
  0xef, 0xfe, 0xf2, 0xf2, 0xf6, 0xf6, 0xf0, 0x54, 0x0f, 0x0a, 0xf9, 0x02,
  0x09, 0x10, 0x00, 0x01, 0xfc, 0xfa, 0x06, 0x08, 0xee, 0xfc, 0xf7, 0xfa,
  0x0b, 0xfd, 0x00, 0x00, 0xfc, 0x0d, 0x03, 0x0f, 0xff, 0x13, 0x0a, 0xf8,
  0x19, 0xfb, 0xf9, 0x17, 0x04, 0xfe, 0xee, 0x03, 0x0e, 0xfb, 0x01, 0x17,
  0xfc, 0x0d, 0xfa, 0x05, 0x01, 0xfd, 0xf6, 0x00, 0xfd, 0xf3, 0x00, 0xf6,
  0xf6, 0xf4, 0xff, 0xfc, 0xf0, 0x1e, 0xf9, 0xf5, 0xfe, 0xfc, 0xf7, 0xfa,
  0x0b, 0x0e, 0x01, 0x09, 0x2f, 0xf8, 0xe6, 0x0b, 0xf9, 0xf6, 0x1f, 0xfc,
  0xf9, 0x3a, 0xfd, 0xfe, 0xe6, 0xfe, 0xff, 0xff, 0x04, 0x00, 0x00, 0x00,
  0x28, 0x00, 0x00, 0x00, 0x00, 0x00, 0x00, 0x00, 0x00, 0x00, 0x00, 0x00,
  0x03, 0x00, 0x00, 0x00, 0x02, 0x00, 0x00, 0x00, 0x01, 0x00, 0x00, 0x00,
  0x04, 0x00, 0x00, 0x00, 0x02, 0x00, 0x00, 0x00, 0xff, 0xff, 0xff, 0xff,
  0xff, 0xff, 0xff, 0xff, 0xff, 0xff, 0xff, 0xff, 0x1a, 0xff, 0xff, 0xff,
  0x04, 0x00, 0x00, 0x00, 0x28, 0x00, 0x00, 0x00, 0x24, 0x0e, 0x39, 0xdd,
  0x00, 0xd9, 0xd7, 0xf7, 0x0e, 0x20, 0x1f, 0x02, 0xc6, 0xfa, 0xec, 0xf7,
  0x09, 0x09, 0xfd, 0x09, 0xdb, 0x0d, 0x31, 0xc7, 0x1c, 0xfc, 0x2c, 0x12,
  0xf0, 0xdb, 0xe9, 0x00, 0xd8, 0x7f, 0x18, 0xf0, 0x02, 0xe3, 0xf8, 0xfa,
  0x4e, 0xff, 0xff, 0xff, 0x04, 0x00, 0x00, 0x00, 0x10, 0x00, 0x00, 0x00,
  0x00, 0x00, 0x00, 0x00, 0xfb, 0xff, 0xff, 0xff, 0x08, 0x00, 0x00, 0x00,
  0x05, 0x00, 0x00, 0x00, 0x38, 0xff, 0xff, 0xff, 0x3c, 0xff, 0xff, 0xff,
  0x0f, 0x00, 0x00, 0x00, 0x4d, 0x4c, 0x49, 0x52, 0x20, 0x43, 0x6f, 0x6e,
  0x76, 0x65, 0x72, 0x74, 0x65, 0x64, 0x2e, 0x00, 0x01, 0x00, 0x00, 0x00,
  0x14, 0x00, 0x00, 0x00, 0x00, 0x00, 0x0e, 0x00, 0x18, 0x00, 0x14, 0x00,
  0x10, 0x00, 0x0c, 0x00, 0x08, 0x00, 0x04, 0x00, 0x0e, 0x00, 0x00, 0x00,
  0x14, 0x00, 0x00, 0x00, 0x1c, 0x00, 0x00, 0x00, 0x28, 0x01, 0x00, 0x00,
  0x2c, 0x01, 0x00, 0x00, 0x30, 0x01, 0x00, 0x00, 0x04, 0x00, 0x00, 0x00,
  0x6d, 0x61, 0x69, 0x6e, 0x00, 0x00, 0x00, 0x00, 0x04, 0x00, 0x00, 0x00,
  0xd0, 0x00, 0x00, 0x00, 0x88, 0x00, 0x00, 0x00, 0x50, 0x00, 0x00, 0x00,
  0x14, 0x00, 0x00, 0x00, 0x00, 0x00, 0x0e, 0x00, 0x1a, 0x00, 0x14, 0x00,
  0x10, 0x00, 0x0c, 0x00, 0x0b, 0x00, 0x04, 0x00, 0x0e, 0x00, 0x00, 0x00,
  0x1c, 0x00, 0x00, 0x00, 0x00, 0x00, 0x00, 0x09, 0x1c, 0x00, 0x00, 0x00,
  0x20, 0x00, 0x00, 0x00, 0x01, 0x00, 0x00, 0x00, 0x00, 0x00, 0x06, 0x00,
  0x08, 0x00, 0x04, 0x00, 0x06, 0x00, 0x00, 0x00, 0x00, 0x00, 0x80, 0x3f,
  0x01, 0x00, 0x00, 0x00, 0x0a, 0x00, 0x00, 0x00, 0x01, 0x00, 0x00, 0x00,
  0x09, 0x00, 0x00, 0x00, 0x96, 0xff, 0xff, 0xff, 0x14, 0x00, 0x00, 0x00,
  0x00, 0x00, 0x00, 0x08, 0x10, 0x00, 0x00, 0x00, 0x14, 0x00, 0x00, 0x00,
  0x04, 0x00, 0x04, 0x00, 0x04, 0x00, 0x00, 0x00, 0x01, 0x00, 0x00, 0x00,
  0x09, 0x00, 0x00, 0x00, 0x03, 0x00, 0x00, 0x00, 0x08, 0x00, 0x00, 0x00,
  0x02, 0x00, 0x00, 0x00, 0x01, 0x00, 0x00, 0x00, 0xca, 0xff, 0xff, 0xff,
  0x10, 0x00, 0x00, 0x00, 0x00, 0x00, 0x00, 0x08, 0x10, 0x00, 0x00, 0x00,
  0x14, 0x00, 0x00, 0x00, 0xba, 0xff, 0xff, 0xff, 0x00, 0x00, 0x00, 0x01,
  0x01, 0x00, 0x00, 0x00, 0x08, 0x00, 0x00, 0x00, 0x03, 0x00, 0x00, 0x00,
  0x07, 0x00, 0x00, 0x00, 0x04, 0x00, 0x00, 0x00, 0x03, 0x00, 0x00, 0x00,
  0x00, 0x00, 0x0e, 0x00, 0x16, 0x00, 0x00, 0x00, 0x10, 0x00, 0x0c, 0x00,
  0x0b, 0x00, 0x04, 0x00, 0x0e, 0x00, 0x00, 0x00, 0x18, 0x00, 0x00, 0x00,
  0x00, 0x00, 0x00, 0x08, 0x18, 0x00, 0x00, 0x00, 0x1c, 0x00, 0x00, 0x00,
  0x00, 0x00, 0x06, 0x00, 0x08, 0x00, 0x07, 0x00, 0x06, 0x00, 0x00, 0x00,
  0x00, 0x00, 0x00, 0x01, 0x01, 0x00, 0x00, 0x00, 0x07, 0x00, 0x00, 0x00,
  0x03, 0x00, 0x00, 0x00, 0x00, 0x00, 0x00, 0x00, 0x06, 0x00, 0x00, 0x00,
  0x05, 0x00, 0x00, 0x00, 0x01, 0x00, 0x00, 0x00, 0x0a, 0x00, 0x00, 0x00,
  0x01, 0x00, 0x00, 0x00, 0x00, 0x00, 0x00, 0x00, 0x0b, 0x00, 0x00, 0x00,
  0xa0, 0x04, 0x00, 0x00, 0x28, 0x04, 0x00, 0x00, 0xc4, 0x03, 0x00, 0x00,
  0x60, 0x03, 0x00, 0x00, 0xfc, 0x02, 0x00, 0x00, 0x98, 0x02, 0x00, 0x00,
  0x34, 0x02, 0x00, 0x00, 0x98, 0x01, 0x00, 0x00, 0xf4, 0x00, 0x00, 0x00,
  0x70, 0x00, 0x00, 0x00, 0x04, 0x00, 0x00, 0x00, 0xa2, 0xfb, 0xff, 0xff,
  0x00, 0x00, 0x00, 0x01, 0x14, 0x00, 0x00, 0x00, 0x30, 0x00, 0x00, 0x00,
  0x0b, 0x00, 0x00, 0x00, 0x00, 0x00, 0x00, 0x09, 0x44, 0x00, 0x00, 0x00,
  0x8c, 0xfb, 0xff, 0xff, 0x08, 0x00, 0x00, 0x00, 0x10, 0x00, 0x00, 0x00,
  0x01, 0x00, 0x00, 0x00, 0x80, 0xff, 0xff, 0xff, 0xff, 0xff, 0xff, 0xff,
  0x01, 0x00, 0x00, 0x00, 0x00, 0x00, 0x80, 0x3b, 0x19, 0x00, 0x00, 0x00,
  0x53, 0x74, 0x61, 0x74, 0x65, 0x66, 0x75, 0x6c, 0x50, 0x61, 0x72, 0x74,
  0x69, 0x74, 0x69, 0x6f, 0x6e, 0x65, 0x64, 0x43, 0x61, 0x6c, 0x6c, 0x3a,
  0x30, 0x00, 0x00, 0x00, 0x02, 0x00, 0x00, 0x00, 0x01, 0x00, 0x00, 0x00,
  0x04, 0x00, 0x00, 0x00, 0x0a, 0xfc, 0xff, 0xff, 0x00, 0x00, 0x00, 0x01,
  0x14, 0x00, 0x00, 0x00, 0x30, 0x00, 0x00, 0x00, 0x0a, 0x00, 0x00, 0x00,
  0x00, 0x00, 0x00, 0x09, 0x5c, 0x00, 0x00, 0x00, 0xf4, 0xfb, 0xff, 0xff,
  0x08, 0x00, 0x00, 0x00, 0x10, 0x00, 0x00, 0x00, 0x01, 0x00, 0x00, 0x00,
  0x0d, 0x00, 0x00, 0x00, 0x00, 0x00, 0x00, 0x00, 0x01, 0x00, 0x00, 0x00,
  0xdc, 0xb9, 0x9d, 0x3e, 0x32, 0x00, 0x00, 0x00, 0x73, 0x65, 0x71, 0x75,
  0x65, 0x6e, 0x74, 0x69, 0x61, 0x6c, 0x2f, 0x79, 0x5f, 0x70, 0x72, 0x65,
  0x64, 0x2f, 0x4d, 0x61, 0x74, 0x4d, 0x75, 0x6c, 0x3b, 0x73, 0x65, 0x71,
  0x75, 0x65, 0x6e, 0x74, 0x69, 0x61, 0x6c, 0x2f, 0x79, 0x5f, 0x70, 0x72,
  0x65, 0x64, 0x2f, 0x42, 0x69, 0x61, 0x73, 0x41, 0x64, 0x64, 0x00, 0x00,
  0x02, 0x00, 0x00, 0x00, 0x01, 0x00, 0x00, 0x00, 0x04, 0x00, 0x00, 0x00,
  0x8a, 0xfc, 0xff, 0xff, 0x00, 0x00, 0x00, 0x01, 0x14, 0x00, 0x00, 0x00,
  0x34, 0x00, 0x00, 0x00, 0x09, 0x00, 0x00, 0x00, 0x00, 0x00, 0x00, 0x09,
  0x7c, 0x00, 0x00, 0x00, 0x74, 0xfc, 0xff, 0xff, 0x08, 0x00, 0x00, 0x00,
  0x14, 0x00, 0x00, 0x00, 0x01, 0x00, 0x00, 0x00, 0x80, 0xff, 0xff, 0xff,
  0xff, 0xff, 0xff, 0xff, 0x00, 0x00, 0x00, 0x00, 0x01, 0x00, 0x00, 0x00,
  0xb6, 0xae, 0x54, 0x3e, 0x4c, 0x00, 0x00, 0x00, 0x73, 0x65, 0x71, 0x75,
  0x65, 0x6e, 0x74, 0x69, 0x61, 0x6c, 0x2f, 0x64, 0x65, 0x6e, 0x73, 0x65,
  0x5f, 0x31, 0x2f, 0x4d, 0x61, 0x74, 0x4d, 0x75, 0x6c, 0x3b, 0x73, 0x65,
  0x71, 0x75, 0x65, 0x6e, 0x74, 0x69, 0x61, 0x6c, 0x2f, 0x64, 0x65, 0x6e,
  0x73, 0x65, 0x5f, 0x31, 0x2f, 0x52, 0x65, 0x6c, 0x75, 0x3b, 0x73, 0x65,
  0x71, 0x75, 0x65, 0x6e, 0x74, 0x69, 0x61, 0x6c, 0x2f, 0x64, 0x65, 0x6e,
  0x73, 0x65, 0x5f, 0x31, 0x2f, 0x42, 0x69, 0x61, 0x73, 0x41, 0x64, 0x64,
  0x00, 0x00, 0x00, 0x00, 0x02, 0x00, 0x00, 0x00, 0x01, 0x00, 0x00, 0x00,
  0x0a, 0x00, 0x00, 0x00, 0x2a, 0xfd, 0xff, 0xff, 0x00, 0x00, 0x00, 0x01,
  0x14, 0x00, 0x00, 0x00, 0x34, 0x00, 0x00, 0x00, 0x08, 0x00, 0x00, 0x00,
  0x00, 0x00, 0x00, 0x09, 0x74, 0x00, 0x00, 0x00, 0x14, 0xfd, 0xff, 0xff,
  0x08, 0x00, 0x00, 0x00, 0x14, 0x00, 0x00, 0x00, 0x01, 0x00, 0x00, 0x00,
  0x80, 0xff, 0xff, 0xff, 0xff, 0xff, 0xff, 0xff, 0x00, 0x00, 0x00, 0x00,
  0x01, 0x00, 0x00, 0x00, 0xcc, 0x69, 0x9c, 0x3e, 0x46, 0x00, 0x00, 0x00,
  0x73, 0x65, 0x71, 0x75, 0x65, 0x6e, 0x74, 0x69, 0x61, 0x6c, 0x2f, 0x64,
  0x65, 0x6e, 0x73, 0x65, 0x2f, 0x4d, 0x61, 0x74, 0x4d, 0x75, 0x6c, 0x3b,
  0x73, 0x65, 0x71, 0x75, 0x65, 0x6e, 0x74, 0x69, 0x61, 0x6c, 0x2f, 0x64,
  0x65, 0x6e, 0x73, 0x65, 0x2f, 0x52, 0x65, 0x6c, 0x75, 0x3b, 0x73, 0x65,
  0x71, 0x75, 0x65, 0x6e, 0x74, 0x69, 0x61, 0x6c, 0x2f, 0x64, 0x65, 0x6e,
  0x73, 0x65, 0x2f, 0x42, 0x69, 0x61, 0x73, 0x41, 0x64, 0x64, 0x00, 0x00,
  0x02, 0x00, 0x00, 0x00, 0x01, 0x00, 0x00, 0x00, 0x14, 0x00, 0x00, 0x00,
  0xc2, 0xfd, 0xff, 0xff, 0x00, 0x00, 0x00, 0x01, 0x14, 0x00, 0x00, 0x00,
  0x30, 0x00, 0x00, 0x00, 0x07, 0x00, 0x00, 0x00, 0x00, 0x00, 0x00, 0x09,
  0x3c, 0x00, 0x00, 0x00, 0xac, 0xfd, 0xff, 0xff, 0x08, 0x00, 0x00, 0x00,
  0x10, 0x00, 0x00, 0x00, 0x01, 0x00, 0x00, 0x00, 0x00, 0x00, 0x00, 0x00,
  0x00, 0x00, 0x00, 0x00, 0x01, 0x00, 0x00, 0x00, 0x9a, 0xc3, 0x6a, 0x3c,
  0x12, 0x00, 0x00, 0x00, 0x74, 0x66, 0x6c, 0x2e, 0x70, 0x73, 0x65, 0x75,
  0x64, 0x6f, 0x5f, 0x71, 0x63, 0x6f, 0x6e, 0x73, 0x74, 0x35, 0x00, 0x00,
  0x02, 0x00, 0x00, 0x00, 0x14, 0x00, 0x00, 0x00, 0x27, 0x00, 0x00, 0x00,
  0x22, 0xfe, 0xff, 0xff, 0x00, 0x00, 0x00, 0x01, 0x14, 0x00, 0x00, 0x00,
  0x34, 0x00, 0x00, 0x00, 0x06, 0x00, 0x00, 0x00, 0x00, 0x00, 0x00, 0x02,
  0x40, 0x00, 0x00, 0x00, 0x0c, 0xfe, 0xff, 0xff, 0x08, 0x00, 0x00, 0x00,
  0x14, 0x00, 0x00, 0x00, 0x01, 0x00, 0x00, 0x00, 0x00, 0x00, 0x00, 0x00,
  0x00, 0x00, 0x00, 0x00, 0x00, 0x00, 0x00, 0x00, 0x01, 0x00, 0x00, 0x00,
  0x64, 0x4f, 0xfc, 0x3b, 0x12, 0x00, 0x00, 0x00, 0x74, 0x66, 0x6c, 0x2e,
  0x70, 0x73, 0x65, 0x75, 0x64, 0x6f, 0x5f, 0x71, 0x63, 0x6f, 0x6e, 0x73,
  0x74, 0x34, 0x00, 0x00, 0x01, 0x00, 0x00, 0x00, 0x14, 0x00, 0x00, 0x00,
  0x82, 0xfe, 0xff, 0xff, 0x00, 0x00, 0x00, 0x01, 0x14, 0x00, 0x00, 0x00,
  0x30, 0x00, 0x00, 0x00, 0x05, 0x00, 0x00, 0x00, 0x00, 0x00, 0x00, 0x09,
  0x3c, 0x00, 0x00, 0x00, 0x6c, 0xfe, 0xff, 0xff, 0x08, 0x00, 0x00, 0x00,
  0x10, 0x00, 0x00, 0x00, 0x01, 0x00, 0x00, 0x00, 0x00, 0x00, 0x00, 0x00,
  0x00, 0x00, 0x00, 0x00, 0x01, 0x00, 0x00, 0x00, 0x62, 0xd7, 0xc2, 0x3c,
  0x12, 0x00, 0x00, 0x00, 0x74, 0x66, 0x6c, 0x2e, 0x70, 0x73, 0x65, 0x75,
  0x64, 0x6f, 0x5f, 0x71, 0x63, 0x6f, 0x6e, 0x73, 0x74, 0x33, 0x00, 0x00,
  0x02, 0x00, 0x00, 0x00, 0x0a, 0x00, 0x00, 0x00, 0x14, 0x00, 0x00, 0x00,
  0xe2, 0xfe, 0xff, 0xff, 0x00, 0x00, 0x00, 0x01, 0x14, 0x00, 0x00, 0x00,
  0x34, 0x00, 0x00, 0x00, 0x04, 0x00, 0x00, 0x00, 0x00, 0x00, 0x00, 0x02,
  0x40, 0x00, 0x00, 0x00, 0xcc, 0xfe, 0xff, 0xff, 0x08, 0x00, 0x00, 0x00,
  0x14, 0x00, 0x00, 0x00, 0x01, 0x00, 0x00, 0x00, 0x00, 0x00, 0x00, 0x00,
  0x00, 0x00, 0x00, 0x00, 0x00, 0x00, 0x00, 0x00, 0x01, 0x00, 0x00, 0x00,
  0x8b, 0x17, 0xee, 0x3b, 0x12, 0x00, 0x00, 0x00, 0x74, 0x66, 0x6c, 0x2e,
  0x70, 0x73, 0x65, 0x75, 0x64, 0x6f, 0x5f, 0x71, 0x63, 0x6f, 0x6e, 0x73,
  0x74, 0x32, 0x00, 0x00, 0x01, 0x00, 0x00, 0x00, 0x0a, 0x00, 0x00, 0x00,
  0x42, 0xff, 0xff, 0xff, 0x00, 0x00, 0x00, 0x01, 0x14, 0x00, 0x00, 0x00,
  0x30, 0x00, 0x00, 0x00, 0x03, 0x00, 0x00, 0x00, 0x00, 0x00, 0x00, 0x09,
  0x3c, 0x00, 0x00, 0x00, 0x2c, 0xff, 0xff, 0xff, 0x08, 0x00, 0x00, 0x00,
  0x10, 0x00, 0x00, 0x00, 0x01, 0x00, 0x00, 0x00, 0x00, 0x00, 0x00, 0x00,
  0x00, 0x00, 0x00, 0x00, 0x01, 0x00, 0x00, 0x00, 0x23, 0xef, 0xa3, 0x3c,
  0x12, 0x00, 0x00, 0x00, 0x74, 0x66, 0x6c, 0x2e, 0x70, 0x73, 0x65, 0x75,
  0x64, 0x6f, 0x5f, 0x71, 0x63, 0x6f, 0x6e, 0x73, 0x74, 0x31, 0x00, 0x00,
  0x02, 0x00, 0x00, 0x00, 0x04, 0x00, 0x00, 0x00, 0x0a, 0x00, 0x00, 0x00,
  0xa2, 0xff, 0xff, 0xff, 0x00, 0x00, 0x00, 0x01, 0x14, 0x00, 0x00, 0x00,
  0x30, 0x00, 0x00, 0x00, 0x02, 0x00, 0x00, 0x00, 0x00, 0x00, 0x00, 0x02,
  0x3c, 0x00, 0x00, 0x00, 0x8c, 0xff, 0xff, 0xff, 0x08, 0x00, 0x00, 0x00,
  0x10, 0x00, 0x00, 0x00, 0x01, 0x00, 0x00, 0x00, 0x00, 0x00, 0x00, 0x00,
  0x00, 0x00, 0x00, 0x00, 0x01, 0x00, 0x00, 0x00, 0xea, 0x31, 0x88, 0x3b,
  0x11, 0x00, 0x00, 0x00, 0x74, 0x66, 0x6c, 0x2e, 0x70, 0x73, 0x65, 0x75,
  0x64, 0x6f, 0x5f, 0x71, 0x63, 0x6f, 0x6e, 0x73, 0x74, 0x00, 0x00, 0x00,
  0x01, 0x00, 0x00, 0x00, 0x04, 0x00, 0x00, 0x00, 0x00, 0x00, 0x16, 0x00,
  0x1c, 0x00, 0x18, 0x00, 0x17, 0x00, 0x10, 0x00, 0x0c, 0x00, 0x08, 0x00,
  0x00, 0x00, 0x00, 0x00, 0x00, 0x00, 0x07, 0x00, 0x16, 0x00, 0x00, 0x00,
  0x00, 0x00, 0x00, 0x01, 0x20, 0x00, 0x00, 0x00, 0x40, 0x00, 0x00, 0x00,
  0x01, 0x00, 0x00, 0x00, 0x00, 0x00, 0x00, 0x09, 0x4c, 0x00, 0x00, 0x00,
  0x0c, 0x00, 0x0c, 0x00, 0x00, 0x00, 0x00, 0x00, 0x08, 0x00, 0x04, 0x00,
  0x0c, 0x00, 0x00, 0x00, 0x08, 0x00, 0x00, 0x00, 0x14, 0x00, 0x00, 0x00,
  0x01, 0x00, 0x00, 0x00, 0xa0, 0xff, 0xff, 0xff, 0xff, 0xff, 0xff, 0xff,
  0x00, 0x00, 0x00, 0x00, 0x01, 0x00, 0x00, 0x00, 0x0d, 0x91, 0x09, 0x3f,
  0x13, 0x00, 0x00, 0x00, 0x73, 0x65, 0x72, 0x76, 0x69, 0x6e, 0x67, 0x5f,
  0x64, 0x65, 0x66, 0x61, 0x75, 0x6c, 0x74, 0x5f, 0x78, 0x3a, 0x30, 0x00,
  0x02, 0x00, 0x00, 0x00, 0x01, 0x00, 0x00, 0x00, 0x27, 0x00, 0x00, 0x00,
  0x02, 0x00, 0x00, 0x00, 0x24, 0x00, 0x00, 0x00, 0x04, 0x00, 0x00, 0x00,
  0xf0, 0xff, 0xff, 0xff, 0x19, 0x00, 0x00, 0x00, 0x02, 0x00, 0x00, 0x00,
  0x00, 0x00, 0x00, 0x19, 0x0c, 0x00, 0x10, 0x00, 0x0f, 0x00, 0x00, 0x00,
  0x08, 0x00, 0x04, 0x00, 0x0c, 0x00, 0x00, 0x00, 0x09, 0x00, 0x00, 0x00,
  0x04, 0x00, 0x00, 0x00, 0x00, 0x00, 0x00, 0x09
};
unsigned int tflite_learn_1003053_8_len = 3512;
#endif // _EI_CLASSIFIER_TFLITE_LEARN_1003053_8_H_
